{
  "version": "1.0",
  "truncation": null,
  "padding": null,
  "added_tokens": [
    {
      "id": 0,
      "content": "[PAD]",
      "single_word": false,
      "lstrip": false,
      "rstrip": false,
      "normalized": false,
      "special": true
    },
    {
      "id": 1,
      "content": "[UNK]",
      "single_word": false,
      "lstrip": false,
      "rstrip": false,
      "normalized": false,
      "special": true
    },
    {
      "id": 2,
      "content": "[BOS]",
      "single_word": false,
      "lstrip": false,
      "rstrip": false,
      "normalized": false,
      "special": true
    },
    {
      "id": 3,
      "content": "[EOS]",
      "single_word": false,
      "lstrip": false,
      "rstrip": false,
      "normalized": false,
      "special": true
    }
  ],
  "normalizer": {
    "type": "Sequence",
    "normalizers": [
      {
        "type": "NFKC"
      }
    ]
  },
  "pre_tokenizer": {
    "type": "Whitespace"
  },
  "post_processor": {
    "type": "TemplateProcessing",
    "single": [
      {
        "SpecialToken": {
          "id": "[BOS]",
          "type_id": 0
        }
      },
      {
        "Sequence": {
          "id": "A",
          "type_id": 0
        }
      },
      {
        "SpecialToken": {
          "id": "[EOS]",
          "type_id": 0
        }
      }
    ],
    "pair": [
      {
        "SpecialToken": {
          "id": "[BOS]",
          "type_id": 0
        }
      },
      {
        "Sequence": {
          "id": "A",
          "type_id": 0
        }
      },
      {
        "SpecialToken": {
          "id": "[EOS]",
          "type_id": 0
        }
      },
      {
        "SpecialToken": {
          "id": "[BOS]",
          "type_id": 0
        }
      },
      {
        "Sequence": {
          "id": "B",
          "type_id": 0
        }
      },
      {
        "SpecialToken": {
          "id": "[EOS]",
          "type_id": 0
        }
      }
    ],
    "special_tokens": {
      "[BOS]": {
        "id": "[BOS]",
        "ids": [
          2
        ],
        "tokens": [
          "[BOS]"
        ]
      },
      "[EOS]": {
        "id": "[EOS]",
        "ids": [
          3
        ],
        "tokens": [
          "[EOS]"
        ]
      }
    }
  },
  "decoder": null,
  "model": {
    "type": "BPE",
    "dropout": null,
    "unk_token": "[UNK]",
    "continuing_subword_prefix": null,
    "end_of_word_suffix": null,
    "fuse_unk": false,
    "byte_fallback": false,
    "ignore_merges": false,
    "vocab": {
      "[PAD]": 0,
      "[UNK]": 1,
      "[BOS]": 2,
      "[EOS]": 3,
      "!": 4,
      "\"": 5,
      "$": 6,
      "%": 7,
      "&": 8,
      "'": 9,
      "(": 10,
      ")": 11,
      ",": 12,
      "-": 13,
      ".": 14,
      "/": 15,
      "0": 16,
      "1": 17,
      "2": 18,
      "3": 19,
      "4": 20,
      "5": 21,
      "6": 22,
      "7": 23,
      "8": 24,
      "9": 25,
      ":": 26,
      ";": 27,
      "?": 28,
      "A": 29,
      "B": 30,
      "C": 31,
      "D": 32,
      "E": 33,
      "F": 34,
      "G": 35,
      "H": 36,
      "I": 37,
      "J": 38,
      "K": 39,
      "L": 40,
      "M": 41,
      "N": 42,
      "O": 43,
      "P": 44,
      "Q": 45,
      "R": 46,
      "S": 47,
      "T": 48,
      "U": 49,
      "V": 50,
      "W": 51,
      "X": 52,
      "Y": 53,
      "Z": 54,
      "[": 55,
      "]": 56,
      "a": 57,
      "b": 58,
      "c": 59,
      "d": 60,
      "e": 61,
      "f": 62,
      "g": 63,
      "h": 64,
      "i": 65,
      "j": 66,
      "k": 67,
      "l": 68,
      "m": 69,
      "n": 70,
      "o": 71,
      "p": 72,
      "q": 73,
      "r": 74,
      "s": 75,
      "t": 76,
      "u": 77,
      "v": 78,
      "w": 79,
      "x": 80,
      "y": 81,
      "z": 82,
      "£": 83,
      "­": 84,
      "Ä": 85,
      "É": 86,
      "Ö": 87,
      "Ü": 88,
      "ß": 89,
      "à": 90,
      "á": 91,
      "ä": 92,
      "ç": 93,
      "é": 94,
      "í": 95,
      "ó": 96,
      "ö": 97,
      "ü": 98,
      "́": 99,
      "–": 100,
      "‘": 101,
      "“": 102,
      "„": 103,
      "‹": 104,
      "›": 105,
      "€": 106,
      "er": 107,
      "en": 108,
      "in": 109,
      "ch": 110,
      "th": 111,
      "an": 112,
      "es": 113,
      "on": 114,
      "un": 115,
      "st": 116,
      "the": 117,
      "it": 118,
      "or": 119,
      "ie": 120,
      "al": 121,
      "at": 122,
      "ar": 123,
      "is": 124,
      "as": 125,
      "re": 126,
      "der": 127,
      "te": 128,
      "le": 129,
      "ich": 130,
      "ge": 131,
      "ein": 132,
      "au": 133,
      "de": 134,
      "ing": 135,
      "be": 136,
      "to": 137,
      "ur": 138,
      "of": 139,
      "den": 140,
      "and": 141,
      "il": 142,
      "ro": 143,
      "ion": 144,
      "se": 145,
      "die": 146,
      "he": 147,
      "und": 148,
      "am": 149,
      "ic": 150,
      "gen": 151,
      "ed": 152,
      "ten": 153,
      "ver": 154,
      "ol": 155,
      "ter": 156,
      "ir": 157,
      "el": 158,
      "ent": 159,
      "om": 160,
      "im": 161,
      "ung": 162,
      "sch": 163,
      "hr": 164,
      "ig": 165,
      "ber": 166,
      "ou": 167,
      "we": 168,
      "zu": 169,
      "for": 170,
      "ra": 171,
      "ist": 172,
      "em": 173,
      "ach": 174,
      "ier": 175,
      "ne": 176,
      "us": 177,
      "das": 178,
      "ag": 179,
      "ab": 180,
      "ve": 181,
      "ow": 182,
      "ck": 183,
      "ut": 184,
      "ad": 185,
      "id": 186,
      "all": 187,
      "ation": 188,
      "ay": 189,
      "est": 190,
      "et": 191,
      "lich": 192,
      "um": 193,
      "ct": 194,
      "ill": 195,
      "ce": 196,
      "ot": 197,
      "ür": 198,
      "mit": 199,
      "icht": 200,
      "von": 201,
      "auf": 202,
      "The": 203,
      "ies": 204,
      "isch": 205,
      "sp": 206,
      "op": 207,
      "wer": 208,
      "wh": 209,
      "als": 210,
      "ha": 211,
      "aus": 212,
      "des": 213,
      "ith": 214,
      "pro": 215,
      "was": 216,
      "eine": 217,
      "that": 218,
      "pl": 219,
      "ann": 220,
      "ul": 221,
      "con": 222,
      "St": 223,
      "dem": 224,
      "ke": 225,
      "af": 226,
      "men": 227,
      "with": 228,
      "ze": 229,
      "res": 230,
      "are": 231,
      "per": 232,
      "In": 233,
      "com": 234,
      "sa": 235,
      "sen": 236,
      "ri": 237,
      "ts": 238,
      "lo": 239,
      "war": 240,
      "An": 241,
      "ly": 242,
      "me": 243,
      "Sch": 244,
      "sich": 245,
      "man": 246,
      "ahr": 247,
      "für": 248,
      "ex": 249,
      "ther": 250,
      "ah": 251,
      "ben": 252,
      "ff": 253,
      "ger": 254,
      "ru": 255,
      "kt": 256,
      "ell": 257,
      "oll": 258,
      "ld": 259,
      "su": 260,
      "ien": 261,
      "ta": 262,
      "Ver": 263,
      "00": 264,
      "ind": 265,
      "her": 266,
      "Die": 267,
      "ges": 268,
      "ear": 269,
      "än": 270,
      "hat": 271,
      "so": 272,
      "by": 273,
      "ma": 274,
      "fe": 275,
      "ik": 276,
      "nicht": 277,
      "la": 278,
      "ug": 279,
      "och": 280,
      "will": 281,
      "über": 282,
      "bei": 283,
      "dass": 284,
      "iv": 285,
      "co": 286,
      "ted": 287,
      "Re": 288,
      "art": 289,
      "said": 290,
      "rom": 291,
      "ess": 292,
      "po": 293,
      "tra": 294,
      "pe": 295,
      "ll": 296,
      "ht": 297,
      "ort": 298,
      "ungen": 299,
      "si": 300,
      "ran": 301,
      "from": 302,
      "ment": 303,
      "his": 304,
      "sie": 305,
      "wir": 306,
      "einer": 307,
      "Au": 308,
      "end": 309,
      "ap": 310,
      "ate": 311,
      "mer": 312,
      "ers": 313,
      "wor": 314,
      "out": 315,
      "ischen": 316,
      "auch": 317,
      "tz": 318,
      "has": 319,
      "ste": 320,
      "igen": 321,
      "Un": 322,
      "Be": 323,
      "nen": 324,
      "vor": 325,
      "nach": 326,
      "our": 327,
      "sh": 328,
      "gan": 329,
      "not": 330,
      "ac": 331,
      "kl": 332,
      "mo": 333,
      "up": 334,
      "Ge": 335,
      "dies": 336,
      "einem": 337,
      "hen": 338,
      "ould": 339,
      "ft": 340,
      "qu": 341,
      "year": 342,
      "its": 343,
      "einen": 344,
      "ity": 345,
      "iel": 346,
      "have": 347,
      "Er": 348,
      "ant": 349,
      "wie": 350,
      "wur": 351,
      "lie": 352,
      ",\"": 353,
      "är": 354,
      "ding": 355,
      "ern": 356,
      "age": 357,
      "one": 358,
      "ine": 359,
      "Pro": 360,
      "ast": 361,
      "sag": 362,
      "hal": 363,
      "off": 364,
      "this": 365,
      "20": 366,
      "hn": 367,
      "ire": 368,
      "ön": 369,
      "ice": 370,
      "br": 371,
      "li": 372,
      "ren": 373,
      "ser": 374,
      "wo": 375,
      "do": 376,
      "ust": 377,
      "if": 378,
      "US": 379,
      "werden": 380,
      "now": 381,
      "rü": 382,
      "ard": 383,
      "ungs": 384,
      "go": 385,
      "their": 386,
      "ain": 387,
      "chen": 388,
      "urch": 389,
      "Jahr": 390,
      "Ges": 391,
      "ive": 392,
      "fü": 393,
      "iter": 394,
      "sit": 395,
      "ange": 396,
      "day": 397,
      "ner": 398,
      "ische": 399,
      "ib": 400,
      "ät": 401,
      "tr": 402,
      "iden": 403,
      "inter": 404,
      "ue": 405,
      "old": 406,
      "We": 407,
      "ör": 408,
      "ans": 409,
      "ub": 410,
      "bo": 411,
      "also": 412,
      "enn": 413,
      "ally": 414,
      "sten": 415,
      "unter": 416,
      "were": 417,
      "schaf": 418,
      "sind": 419,
      "which": 420,
      "Ein": 421,
      "cl": 422,
      "pr": 423,
      "ick": 424,
      "ok": 425,
      "Ger": 426,
      "Le": 427,
      "kön": 428,
      "ron": 429,
      "pt": 430,
      "ions": 431,
      "wurde": 432,
      "hl": 433,
      "ise": 434,
      "Ne": 435,
      "ight": 436,
      "min": 437,
      "og": 438,
      "ble": 439,
      "iz": 440,
      "sel": 441,
      "aben": 442,
      "Der": 443,
      "pres": 444,
      "zur": 445,
      "bes": 446,
      "ige": 447,
      "ore": 448,
      "fen": 449,
      "gro": 450,
      "ip": 451,
      "iert": 452,
      "Se": 453,
      "od": 454,
      "ded": 455,
      "Sp": 456,
      "ial": 457,
      "who": 458,
      "klär": 459,
      "can": 460,
      "ia": 461,
      "land": 462,
      "ken": 463,
      "cht": 464,
      "they": 465,
      "Eur": 466,
      "cre": 467,
      "kom": 468,
      "ähr": 469,
      "son": 470,
      "ang": 471,
      "En": 472,
      "ih": 473,
      "ass": 474,
      "own": 475,
      "Fl": 476,
      "ome": 477,
      "ous": 478,
      "tim": 479,
      "fin": 480,
      "Vor": 481,
      "je": 482,
      "wird": 483,
      "da": 484,
      "ile": 485,
      "Al": 486,
      "gr": 487,
      "haben": 488,
      "\",": 489,
      "rit": 490,
      "been": 491,
      "comp": 492,
      "but": 493,
      "fer": 494,
      "“,": 495,
      "ction": 496,
      "sagte": 497,
      "ev": 498,
      "lin": 499,
      "ander": 500,
      "ak": 501,
      "che": 502,
      "ied": 503,
      "get": 504,
      "pol": 505,
      "form": 506,
      "able": 507,
      "erklär": 508,
      "illion": 509,
      "durch": 510,
      "iten": 511,
      "ingen": 512,
      "ctor": 513,
      "Das": 514,
      "sy": 515,
      "way": 516,
      "Ch": 517,
      "ack": 518,
      "Mit": 519,
      "fo": 520,
      "had": 521,
      "over": 522,
      "part": 523,
      "oder": 524,
      "ute": 525,
      "use": 526,
      "He": 527,
      "ure": 528,
      "alle": 529,
      "ark": 530,
      "201": 531,
      "Ar": 532,
      "fa": 533,
      "kann": 534,
      "ated": 535,
      "sei": 536,
      "ahl": 537,
      "aber": 538,
      "uss": 539,
      "De": 540,
      "other": 541,
      "fir": 542,
      "ite": 543,
      "ical": 544,
      "zum": 545,
      "igh": 546,
      "cor": 547,
      "zwe": 548,
      "ere": 549,
      "gegen": 550,
      "ele": 551,
      "no": 552,
      "sein": 553,
      "zen": 554,
      "du": 555,
      "stell": 556,
      "lichen": 557,
      "spe": 558,
      "Ma": 559,
      "cent": 560,
      "ihr": 561,
      "ign": 562,
      "ieren": 563,
      "ob": 564,
      "new": 565,
      "car": 566,
      "fl": 567,
      "pp": 568,
      "soll": 569,
      "ong": 570,
      "ary": 571,
      "ild": 572,
      "Unter": 573,
      "vi": 574,
      "iss": 575,
      "rei": 576,
      "di": 577,
      "gt": 578,
      "etz": 579,
      "kon": 580,
      "teil": 581,
      "schen": 582,
      "Aus": 583,
      "gel": 584,
      "about": 585,
      "Flug": 586,
      "ss": 587,
      "work": 588,
      "vel": 589,
      "zw": 590,
      "dis": 591,
      "sam": 592,
      "ück": 593,
      "ance": 594,
      "tern": 595,
      "neh": 596,
      "ho": 597,
      "uch": 598,
      "str": 599,
      "tel": 600,
      "gew": 601,
      "mal": 602,
      "reg": 603,
      "tet": 604,
      "führ": 605,
      "Europ": 606,
      "äu": 607,
      "bet": 608,
      "vers": 609,
      "bis": 610,
      "more": 611,
      "ün": 612,
      "inder": 613,
      "geb": 614,
      "liche": 615,
      "habe": 616,
      "than": 617,
      "assen": 618,
      "ational": 619,
      "200": 620,
      "dit": 621,
      "pa": 622,
      "ph": 623,
      "pre": 624,
      "ty": 625,
      "would": 626,
      "ents": 627,
      "ople": 628,
      "fahr": 629,
      "mon": 630,
      "elle": 631,
      "Sie": 632,
      "lau": 633,
      "üs": 634,
      "ins": 635,
      "under": 636,
      "del": 637,
      "ations": 638,
      "Reg": 639,
      "Fre": 640,
      "med": 641,
      "sche": 642,
      "fore": 643,
      "schaft": 644,
      "Es": 645,
      "It": 646,
      "ian": 647,
      "ler": 648,
      "noch": 649,
      "inv": 650,
      "stat": 651,
      "ord": 652,
      "ater": 653,
      "ister": 654,
      "mehr": 655,
      "there": 656,
      "tre": 657,
      "aten": 658,
      "weiter": 659,
      "people": 660,
      "ibt": 661,
      "fall": 662,
      "alt": 663,
      "eing": 664,
      "Th": 665,
      "wn": 666,
      "mach": 667,
      "any": 668,
      "dar": 669,
      "gh": 670,
      "ry": 671,
      "vic": 672,
      "stem": 673,
      "ause": 674,
      "cur": 675,
      "could": 676,
      "glich": 677,
      "par": 678,
      "ase": 679,
      "ely": 680,
      "ember": 681,
      "years": 682,
      "Wir": 683,
      "bu": 684,
      "fre": 685,
      "pf": 686,
      "vie": 687,
      "atz": 688,
      "ace": 689,
      "say": 690,
      "two": 691,
      "letz": 692,
      "first": 693,
      "\".": 694,
      "Am": 695,
      "Fe": 696,
      "Nach": 697,
      "hör": 698,
      "arbe": 699,
      "very": 700,
      "iger": 701,
      "ierung": 702,
      "adt": 703,
      "here": 704,
      "hatte": 705,
      "erklärte": 706,
      "cy": 707,
      "nis": 708,
      "port": 709,
      "rie": 710,
      "you": 711,
      "heit": 712,
      "plan": 713,
      "after": 714,
      "kommen": 715,
      ".\"": 716,
      "Ho": 717,
      "Te": 718,
      "mö": 719,
      "seine": 720,
      "tur": 721,
      "halten": 722,
      "time": 723,
      "air": 724,
      "eit": 725,
      "ful": 726,
      "into": 727,
      "ank": 728,
      "tem": 729,
      "ings": 730,
      "ident": 731,
      "nehmen": 732,
      "Ab": 733,
      "Im": 734,
      "oun": 735,
      "wever": 736,
      "such": 737,
      "Ber": 738,
      "Ob": 739,
      "bre": 740,
      "nur": 741,
      "ish": 742,
      "Auf": 743,
      "äl": 744,
      "ors": 745,
      "beg": 746,
      "many": 747,
      "Gesch": 748,
      "15": 749,
      "Bo": 750,
      "Mr": 751,
      "bar": 752,
      "dam": 753,
      "ide": 754,
      "äch": 755,
      "igt": 756,
      "ihre": 757,
      "pen": 758,
      "por": 759,
      "stand": 760,
      "ders": 761,
      "most": 762,
      "ds": 763,
      "miss": 764,
      "she": 765,
      "ual": 766,
      "ßen": 767,
      "ame": 768,
      "when": 769,
      "ubl": 770,
      "Her": 771,
      "Men": 772,
      "bl": 773,
      "gest": 774,
      "rä": 775,
      "some": 776,
      "vis": 777,
      "wa": 778,
      "setz": 779,
      "amer": 780,
      "Ex": 781,
      "Kinder": 782,
      "Pl": 783,
      "nment": 784,
      "os": 785,
      "ved": 786,
      "them": 787,
      "Me": 788,
      "bus": 789,
      "hin": 790,
      "ese": 791,
      "19": 792,
      "cause": 793,
      "gibt": 794,
      "wenn": 795,
      "ße": 796,
      "unden": 797,
      "Land": 798,
      "ci": 799,
      "gs": 800,
      "olog": 801,
      "again": 802,
      "coun": 803,
      "diese": 804,
      "Jahren": 805,
      "New": 806,
      "Pol": 807,
      "Ro": 808,
      "bur": 809,
      "dann": 810,
      "ric": 811,
      "öff": 812,
      "child": 813,
      "stag": 814,
      "urs": 815,
      "keit": 816,
      "zeit": 817,
      "000": 818,
      "gesch": 819,
      "können": 820,
      "sur": 821,
      "ud": 822,
      "tell": 823,
      "sed": 824,
      "elt": 825,
      "ikan": 826,
      "For": 827,
      "SA": 828,
      "ose": 829,
      "ats": 830,
      "led": 831,
      "schl": 832,
      "On": 833,
      "cr": 834,
      "fol": 835,
      "wach": 836,
      "well": 837,
      "ert": 838,
      "ale": 839,
      "uring": 840,
      "cont": 841,
      "wurden": 842,
      "Air": 843,
      "Fran": 844,
      "Snow": 845,
      "ath": 846,
      "gre": 847,
      "Über": 848,
      "stru": 849,
      "isten": 850,
      "worden": 851,
      "Ent": 852,
      "Snowden": 853,
      "best": 854,
      "mus": 855,
      "ohn": 856,
      "erst": 857,
      "inn": 858,
      "itz": 859,
      "ult": 860,
      "pos": 861,
      "system": 862,
      "Com": 863,
      "ced": 864,
      "hand": 865,
      "unn": 866,
      "read": 867,
      "geben": 868,
      "eines": 869,
      "neu": 870,
      "Um": 871,
      "ound": 872,
      "wen": 873,
      "ween": 874,
      "net": 875,
      "come": 876,
      "cording": 877,
      "Fr": 878,
      "Or": 879,
      "This": 880,
      "act": 881,
      "back": 882,
      "gu": 883,
      "müs": 884,
      "nte": 885,
      "hel": 886,
      "ischer": 887,
      "zwei": 888,
      "Europe": 889,
      "Zu": 890,
      "don": 891,
      "nah": 892,
      "ple": 893,
      "ities": 894,
      "dern": 895,
      "sex": 896,
      "ront": 897,
      "even": 898,
      "Bund": 899,
      "ven": 900,
      "anz": 901,
      "ama": 902,
      "cess": 903,
      "ek": 904,
      "les": 905,
      "oh": 906,
      "publ": 907,
      "ating": 908,
      "det": 909,
      "deut": 910,
      "roug": 911,
      "amm": 912,
      "olle": 913,
      "law": 914,
      "gover": 915,
      "However": 916,
      "Menschen": 917,
      "10": 918,
      "Ich": 919,
      "cted": 920,
      "hö": 921,
      "keine": 922,
      "ving": 923,
      "star": 924,
      "gem": 925,
      "imm": 926,
      "ough": 927,
      "Af": 928,
      "Kon": 929,
      "Zeit": 930,
      "line": 931,
      "change": 932,
      "aut": 933,
      "Schul": 934,
      "wieder": 935,
      "government": 936,
      "Mon": 937,
      "Sy": 938,
      "ces": 939,
      "thre": 940,
      "ott": 941,
      "änd": 942,
      "Million": 943,
      "Par": 944,
      "ize": 945,
      "mun": 946,
      "mat": 947,
      "uber": 948,
      "wür": 949,
      "team": 950,
      "ffic": 951,
      "zwischen": 952,
      "vices": 953,
      "30": 954,
      "Amer": 955,
      "fra": 956,
      "him": 957,
      "tag": 958,
      "ens": 959,
      "ional": 960,
      "ters": 961,
      "bere": 962,
      "invest": 963,
      "Bes": 964,
      "being": 965,
      "dire": 966,
      "iat": 967,
      "ker": 968,
      "isen": 969,
      "wegen": 970,
      "what": 971,
      "Stadt": 972,
      "Pf": 973,
      "cial": 974,
      "frü": 975,
      "ious": 976,
      "ßer": 977,
      "unde": 978,
      "ates": 979,
      "around": 980,
      "ised": 981,
      "immer": 982,
      "play": 983,
      "stral": 984,
      "turn": 985,
      "mission": 986,
      "Millionen": 987,
      "25": 988,
      "EU": 989,
      "oc": 990,
      "thing": 991,
      "ory": 992,
      "ollar": 993,
      "As": 994,
      "bst": 995,
      "know": 996,
      "my": 997,
      "ool": 998,
      "rich": 999,
      "zie": 1000,
      "then": 1001,
      "alten": 1002,
      "ash": 1003,
      "lear": 1004,
      "dent": 1005,
      "ils": 1006,
      "heim": 1007,
      "person": 1008,
      "make": 1009,
      "cour": 1010,
      "USA": 1011,
      "ject": 1012,
      "Regierung": 1013,
      "rough": 1014,
      "Fahr": 1015,
      "There": 1016,
      "nor": 1017,
      "zent": 1018,
      "reich": 1019,
      "beim": 1020,
      "loc": 1021,
      "polit": 1022,
      "Bundes": 1023,
      "Ste": 1024,
      "dien": 1025,
      "sol": 1026,
      "ster": 1027,
      "ited": 1028,
      "aum": 1029,
      "seit": 1030,
      "They": 1031,
      "sport": 1032,
      "kehr": 1033,
      "zeug": 1034,
      "Inter": 1035,
      "tain": 1036,
      "öffent": 1037,
      "Dollar": 1038,
      "av": 1039,
      "million": 1040,
      "tran": 1041,
      "uer": 1042,
      "vice": 1043,
      "chn": 1044,
      "thor": 1045,
      "ask": 1046,
      "asse": 1047,
      "ased": 1048,
      "before": 1049,
      "top": 1050,
      "seien": 1051,
      "owing": 1052,
      "produ": 1053,
      "expl": 1054,
      "ffer": 1055,
      "Mar": 1056,
      "gar": 1057,
      "rund": 1058,
      "sm": 1059,
      "vom": 1060,
      "iness": 1061,
      "through": 1062,
      "stra": 1063,
      "arge": 1064,
      "isk": 1065,
      "leg": 1066,
      "weil": 1067,
      "weise": 1068,
      "place": 1069,
      "And": 1070,
      "sicher": 1071,
      "take": 1072,
      "etzt": 1073,
      "Obama": 1074,
      "damit": 1075,
      ".“": 1076,
      "CA": 1077,
      "Kir": 1078,
      "came": 1079,
      "just": 1080,
      "nten": 1081,
      "national": 1082,
      "tro": 1083,
      "ys": 1084,
      "cher": 1085,
      "andel": 1086,
      "only": 1087,
      "dec": 1088,
      "amil": 1089,
      "ament": 1090,
      "ürger": 1091,
      "oper": 1092,
      "exper": 1093,
      "made": 1094,
      "app": 1095,
      "should": 1096,
      "Deut": 1097,
      "amerikan": 1098,
      "But": 1099,
      "Go": 1100,
      "dri": 1101,
      "down": 1102,
      "how": 1103,
      "high": 1104,
      "ivers": 1105,
      "mark": 1106,
      "ves": 1107,
      "viel": 1108,
      "requ": 1109,
      "denen": 1110,
      "werde": 1111,
      "äng": 1112,
      "änder": 1113,
      "sible": 1114,
      "ließ": 1115,
      "Don": 1116,
      "Haus": 1117,
      "ep": 1118,
      "fest": 1119,
      "ium": 1120,
      "pri": 1121,
      "zahl": 1122,
      "ähl": 1123,
      "incl": 1124,
      "red": 1125,
      "ichte": 1126,
      "week": 1127,
      "ement": 1128,
      "iere": 1129,
      "aller": 1130,
      "where": 1131,
      "provi": 1132,
      "ular": 1133,
      "Stra": 1134,
      "ahn": 1135,
      "German": 1136,
      "formation": 1137,
      "Unternehmen": 1138,
      "view": 1139,
      "says": 1140,
      "against": 1141,
      "public": 1142,
      "three": 1143,
      "No": 1144,
      "bt": 1145,
      "gl": 1146,
      "hau": 1147,
      "king": 1148,
      "kam": 1149,
      "rest": 1150,
      "ütz": 1151,
      "these": 1152,
      "oren": 1153,
      "organ": 1154,
      "alth": 1155,
      "gers": 1156,
      "llen": 1157,
      "site": 1158,
      "found": 1159,
      "Dies": 1160,
      "Mo": 1161,
      "Nor": 1162,
      "Pas": 1163,
      "Son": 1164,
      "agen": 1165,
      "drei": 1166,
      "every": 1167,
      "kle": 1168,
      "sow": 1169,
      "test": 1170,
      "welle": 1171,
      "ision": 1172,
      "vegan": 1173,
      "utz": 1174,
      "los": 1175,
      "Austral": 1176,
      "press": 1177,
      "group": 1178,
      "Arbe": 1179,
      "fahren": 1180,
      "möglich": 1181,
      "tember": 1182,
      "müssen": 1183,
      "Gem": 1184,
      "Ren": 1185,
      "bor": 1186,
      "clear": 1187,
      "oy": 1188,
      "pon": 1189,
      "sicht": 1190,
      "ting": 1191,
      "walt": 1192,
      "because": 1193,
      "verb": 1194,
      "versch": 1195,
      "eld": 1196,
      "omb": 1197,
      "ommen": 1198,
      "look": 1199,
      "waren": 1200,
      "ives": 1201,
      "nerstag": 1202,
      "between": 1203,
      "ounc": 1204,
      "ready": 1205,
      "Donnerstag": 1206,
      "inclu": 1207,
      "Doch": 1208,
      "Mus": 1209,
      "Sc": 1210,
      "gy": 1211,
      "member": 1212,
      "seiner": 1213,
      "inen": 1214,
      "ald": 1215,
      "atur": 1216,
      "rel": 1217,
      "town": 1218,
      "imin": 1219,
      "acht": 1220,
      "ierte": 1221,
      "ktion": 1222,
      "dieser": 1223,
      "minister": 1224,
      "zurück": 1225,
      "ährend": 1226,
      "police": 1227,
      "Thurs": 1228,
      "Polize": 1229,
      "Gemein": 1230,
      "Thursday": 1231,
      "Bürger": 1232,
      "Bwelle": 1233,
      "Hand": 1234,
      "Man": 1235,
      "Med": 1236,
      "cut": 1237,
      "gle": 1238,
      "gab": 1239,
      "ks": 1240,
      "mar": 1241,
      "ühr": 1242,
      "ence": 1243,
      "ince": 1244,
      "those": 1245,
      "sta": 1246,
      "ged": 1247,
      "outh": 1248,
      "ouse": 1249,
      "zeu": 1250,
      "ress": 1251,
      "riff": 1252,
      "fee": 1253,
      "diesem": 1254,
      "prä": 1255,
      "children": 1256,
      "unnel": 1257,
      "gemein": 1258,
      "Goog": 1259,
      "100": 1260,
      "AA": 1261,
      "At": 1262,
      "Bar": 1263,
      "Gro": 1264,
      "Jah": 1265,
      "Mann": 1266,
      "Yor": 1267,
      "ball": 1268,
      "dig": 1269,
      "foll": 1270,
      "jähr": 1271,
      "kte": 1272,
      "long": 1273,
      "ton": 1274,
      "incre": 1275,
      "itt": 1276,
      "ital": 1277,
      "gehen": 1278,
      "ckt": 1279,
      "show": 1280,
      "halb": 1281,
      "ired": 1282,
      "rün": 1283,
      "ardin": 1284,
      "lines": 1285,
      "elect": 1286,
      "ihrer": 1287,
      "business": 1288,
      "neuen": 1289,
      "Jahre": 1290,
      "Chr": 1291,
      "Woch": 1292,
      "ca": 1293,
      "ging": 1294,
      "hol": 1295,
      "lang": 1296,
      "sor": 1297,
      "cho": 1298,
      "chte": 1299,
      "uns": 1300,
      "att": 1301,
      "repor": 1302,
      "auen": 1303,
      "devices": 1304,
      "bekann": 1305,
      "Sta": 1306,
      "main": 1307,
      "last": 1308,
      "lack": 1309,
      "poin": 1310,
      "acc": 1311,
      "self": 1312,
      "machen": 1313,
      "contin": 1314,
      "Americ": 1315,
      "Br": 1316,
      "Hans": 1317,
      "Pers": 1318,
      "jor": 1319,
      "ptember": 1320,
      "sl": 1321,
      "seinem": 1322,
      "äte": 1323,
      "sehen": 1324,
      "head": 1325,
      "tent": 1326,
      "ett": 1327,
      "cept": 1328,
      "spiel": 1329,
      "ward": 1330,
      "major": 1331,
      "Proctor": 1332,
      "brit": 1333,
      "September": 1334,
      "2011": 1335,
      "Google": 1336,
      "NSA": 1337,
      "bil": 1338,
      "care": 1339,
      "fach": 1340,
      "hät": 1341,
      "must": 1342,
      "passen": 1343,
      "ität": 1344,
      "icher": 1345,
      "road": 1346,
      "icip": 1347,
      "schon": 1348,
      "weg": 1349,
      "wei": 1350,
      "ower": 1351,
      "plann": 1352,
      "sub": 1353,
      "tack": 1354,
      "sagt": 1355,
      "Leben": 1356,
      "anderen": 1357,
      "used": 1358,
      "investig": 1359,
      "explain": 1360,
      "Bau": 1361,
      "Cent": 1362,
      "Fra": 1363,
      "FAA": 1364,
      "Kom": 1365,
      "ail": 1366,
      "during": 1367,
      "hop": 1368,
      "kün": 1369,
      "met": 1370,
      "ppe": 1371,
      "äd": 1372,
      "esen": 1373,
      "sto": 1374,
      "ism": 1375,
      "devel": 1376,
      "set": 1377,
      "school": 1378,
      "former": 1379,
      "ets": 1380,
      "mitt": 1381,
      "zeich": 1382,
      "iven": 1383,
      "posit": 1384,
      "offic": 1385,
      "like": 1386,
      "Euro": 1387,
      "month": 1388,
      "develop": 1389,
      "Eine": 1390,
      "Front": 1391,
      "Ser": 1392,
      "bin": 1393,
      "less": 1394,
      "rö": 1395,
      "sc": 1396,
      "wan": 1397,
      "your": 1398,
      "üt": 1399,
      "ony": 1400,
      "stre": 1401,
      "gele": 1402,
      "author": 1403,
      "bel": 1404,
      "told": 1405,
      "ross": 1406,
      "weit": 1407,
      "cken": 1408,
      "progr": 1409,
      "sagen": 1410,
      "lose": 1411,
      "ments": 1412,
      "nachdem": 1413,
      "dition": 1414,
      "viele": 1415,
      "ubert": 1416,
      "bereits": 1417,
      "Passag": 1418,
      "sowie": 1419,
      "Polizei": 1420,
      "50": 1421,
      "Dro": 1422,
      "Pr": 1423,
      "Was": 1424,
      "bsite": 1425,
      "case": 1426,
      "dist": 1427,
      "ef": 1428,
      "home": 1429,
      "tw": 1430,
      "tru": 1431,
      "init": 1432,
      "ane": 1433,
      "stu": 1434,
      "already": 1435,
      "see": 1436,
      "ics": 1437,
      "ago": 1438,
      "allen": 1439,
      "cts": 1440,
      "while": 1441,
      "respon": 1442,
      "lage": 1443,
      "according": 1444,
      "life": 1445,
      "blem": 1446,
      "besch": 1447,
      "andere": 1448,
      "arbeit": 1449,
      "York": 1450,
      "Person": 1451,
      "18": 1452,
      "60": 1453,
      "77": 1454,
      "All": 1455,
      "Bl": 1456,
      "Da": 1457,
      "ade": 1458,
      "fur": 1459,
      "mann": 1460,
      "sum": 1461,
      "wä": 1462,
      "xt": 1463,
      "still": 1464,
      "isation": 1465,
      "lea": 1466,
      "gef": 1467,
      "sever": 1468,
      "genommen": 1469,
      "schließ": 1470,
      "igkeit": 1471,
      "ages": 1472,
      "zehn": 1473,
      "lock": 1474,
      "ruppe": 1475,
      "änger": 1476,
      "soci": 1477,
      "cover": 1478,
      "world": 1479,
      "quest": 1480,
      "try": 1481,
      "minist": 1482,
      "erklärt": 1483,
      "letzten": 1484,
      "Teil": 1485,
      "),": 1486,
      "12": 1487,
      "El": 1488,
      "Fin": 1489,
      "Fest": 1490,
      "Kl": 1491,
      "Ph": 1492,
      "Tra": 1493,
      "dru": 1494,
      "doch": 1495,
      "seinen": 1496,
      "woll": 1497,
      "err": 1498,
      "unser": 1499,
      "ief": 1500,
      "techn": 1501,
      "heits": 1502,
      "ict": 1503,
      "verl": 1504,
      "ime": 1505,
      "schn": 1506,
      "utt": 1507,
      "mittel": 1508,
      "Stutt": 1509,
      "meet": 1510,
      "Prozent": 1511,
      "good": 1512,
      "prof": 1513,
      "könnte": 1514,
      "laut": 1515,
      "burg": 1516,
      "struction": 1517,
      "Renam": 1518,
      "Ac": 1519,
      "Ba": 1520,
      "Dit": 1521,
      "Hall": 1522,
      "Pres": 1523,
      "To": 1524,
      "Ve": 1525,
      "Wh": 1526,
      "Wenn": 1527,
      "bru": 1528,
      "dr": 1529,
      "fan": 1530,
      "find": 1531,
      "gut": 1532,
      "gart": 1533,
      "mut": 1534,
      "may": 1535,
      "num": 1536,
      "past": 1537,
      "uation": 1538,
      "whe": 1539,
      "wicht": 1540,
      "want": 1541,
      "während": 1542,
      "ersten": 1543,
      "orf": 1544,
      "ative": 1545,
      "attack": 1546,
      "deral": 1547,
      "secon": 1548,
      "need": 1549,
      "iday": 1550,
      "ausge": 1551,
      "conom": 1552,
      "sive": 1553,
      "Auto": 1554,
      "selbst": 1555,
      "present": 1556,
      "finden": 1557,
      "gegenüber": 1558,
      "differ": 1559,
      "statt": 1560,
      "falls": 1561,
      "Team": 1562,
      "ält": 1563,
      "possible": 1564,
      "Ditta": 1565,
      "14": 1566,
      "Bahn": 1567,
      "Che": 1568,
      "Hoch": 1569,
      "May": 1570,
      "National": 1571,
      "Pre": 1572,
      "bank": 1573,
      "econom": 1574,
      "fr": 1575,
      "fte": 1576,
      "kauf": 1577,
      "mor": 1578,
      "much": 1579,
      "osten": 1580,
      "ps": 1581,
      "richt": 1582,
      "sim": 1583,
      "uell": 1584,
      "val": 1585,
      "ener": 1586,
      "rece": 1587,
      "tober": 1588,
      "raft": 1589,
      "spre": 1590,
      "meas": 1591,
      "ktiv": 1592,
      "side": 1593,
      "Auch": 1594,
      "gangen": 1595,
      "Geb": 1596,
      "ific": 1597,
      "grö": 1598,
      "compan": 1599,
      "comple": 1600,
      "stellen": 1601,
      "sollte": 1602,
      "gleich": 1603,
      "11": 1604,
      "Agen": 1605,
      "Bet": 1606,
      "Cl": 1607,
      "Co": 1608,
      "Kle": 1609,
      "Mill": 1610,
      "Prä": 1611,
      "Richt": 1612,
      "Wohn": 1613,
      "Zus": 1614,
      "bra": 1615,
      "did": 1616,
      "daf": 1617,
      "eur": 1618,
      "hof": 1619,
      "haus": 1620,
      "sk": 1621,
      "tschaft": 1622,
      "äm": 1623,
      "anges": 1624,
      "ition": 1625,
      "arding": 1626,
      "lebr": 1627,
      "einfach": 1628,
      "belie": 1629,
      "ures": 1630,
      "hed": 1631,
      "amp": 1632,
      "etwa": 1633,
      "prote": 1634,
      "consi": 1635,
      "keiten": 1636,
      "comes": 1637,
      "ffen": 1638,
      "hatten": 1639,
      "post": 1640,
      "does": 1641,
      "davon": 1642,
      "buil": 1643,
      "Christ": 1644,
      "Frontier": 1645,
      "Stuttgart": 1646,
      "Renamo": 1647,
      "second": 1648,
      "Aug": 1649,
      "If": 1650,
      "Min": 1651,
      "So": 1652,
      "Sicher": 1653,
      "Tri": 1654,
      "Wer": 1655,
      "cus": 1656,
      "fast": 1657,
      "gte": 1658,
      "hier": 1659,
      "since": 1660,
      "tes": 1661,
      "tri": 1662,
      "ink": 1663,
      "ison": 1664,
      "ising": 1665,
      "ason": 1666,
      "ird": 1667,
      "ently": 1668,
      "igten": 1669,
      "forder": 1670,
      "rail": 1671,
      "ists": 1672,
      "add": 1673,
      "celebr": 1674,
      "manage": 1675,
      "travel": 1676,
      "appro": 1677,
      "Bei": 1678,
      "offen": 1679,
      "Gesetz": 1680,
      "schaften": 1681,
      "Als": 1682,
      "company": 1683,
      "scheid": 1684,
      "curr": 1685,
      "setzen": 1686,
      "rict": 1687,
      "Syri": 1688,
      "Arbeit": 1689,
      "Groß": 1690,
      "passengers": 1691,
      "Drogen": 1692,
      "According": 1693,
      "40": 1694,
      "Counc": 1695,
      "John": 1696,
      "MCA": 1697,
      "With": 1698,
      "YMCA": 1699,
      "dro": 1700,
      "eigen": 1701,
      "ially": 1702,
      "mich": 1703,
      "nf": 1704,
      "pun": 1705,
      "put": 1706,
      "sing": 1707,
      "saf": 1708,
      "vo": 1709,
      "wel": 1710,
      "“.": 1711,
      "eng": 1712,
      "innen": 1713,
      "chts": 1714,
      "ones": 1715,
      "state": 1716,
      "rele": 1717,
      "zusam": 1718,
      "neue": 1719,
      "abil": 1720,
      "coming": 1721,
      "Schl": 1722,
      "Verb": 1723,
      "cost": 1724,
      "stehen": 1725,
      "dings": 1726,
      "Geräte": 1727,
      "könnten": 1728,
      "curity": 1729,
      "früher": 1730,
      "Deutsch": 1731,
      "explained": 1732,
      "whether": 1733,
      "consider": 1734,
      "13": 1735,
      "Ed": 1736,
      "Sü": 1737,
      "Ziel": 1738,
      "aw": 1739,
      "az": 1740,
      "dre": 1741,
      "eben": 1742,
      "glie": 1743,
      "mil": 1744,
      "nal": 1745,
      "ped": 1746,
      "phas": 1747,
      "uf": 1748,
      "ually": 1749,
      "chten": 1750,
      "une": 1751,
      "unt": 1752,
      "recent": 1753,
      "ammen": 1754,
      "berg": 1755,
      "umen": 1756,
      "hair": 1757,
      "project": 1758,
      "keep": 1759,
      "commun": 1760,
      "Verein": 1761,
      "Verkehr": 1762,
      "brauch": 1763,
      "fünf": 1764,
      "beste": 1765,
      "ways": 1766,
      "alled": 1767,
      "Airbus": 1768,
      "European": 1769,
      "nahmen": 1770,
      "normal": 1771,
      "local": 1772,
      "Nov": 1773,
      "following": 1774,
      "several": 1775,
      "August": 1776,
      "zusammen": 1777,
      "Deutschland": 1778,
      "Brit": 1779,
      "Car": 1780,
      "Grund": 1781,
      "Qu": 1782,
      "Sit": 1783,
      "Uhr": 1784,
      "Wie": 1785,
      "bi": 1786,
      "bie": 1787,
      "bas": 1788,
      "front": 1789,
      "ihn": 1790,
      "kur": 1791,
      "muss": 1792,
      "nung": 1793,
      "pay": 1794,
      "ral": 1795,
      "sent": 1796,
      "tal": 1797,
      "vier": 1798,
      "üll": 1799,
      "char": 1800,
      "order": 1801,
      "ator": 1802,
      "issen": 1803,
      "tens": 1804,
      "imes": 1805,
      "fort": 1806,
      "cker": 1807,
      "prom": 1808,
      "conc": 1809,
      "Stre": 1810,
      "ffe": 1811,
      "tax": 1812,
      "taken": 1813,
      "ival": 1814,
      "train": 1815,
      "dieses": 1816,
      "halt": 1817,
      "service": 1818,
      "Germany": 1819,
      "sollen": 1820,
      "führt": 1821,
      "nisse": 1822,
      "Geschä": 1823,
      "schlag": 1824,
      "Entscheid": 1825,
      "würden": 1826,
      "Kirchen": 1827,
      "program": 1828,
      "November": 1829,
      "Ha": 1830,
      "Lon": 1831,
      "Rah": 1832,
      "Sund": 1833,
      "akt": 1834,
      "far": 1835,
      "famil": 1836,
      "gas": 1837,
      "ght": 1838,
      "jed": 1839,
      "kn": 1840,
      "large": 1841,
      "nun": 1842,
      "ness": 1843,
      "ost": 1844,
      "pel": 1845,
      "uß": 1846,
      "ues": 1847,
      "won": 1848,
      "thus": 1849,
      "itag": 1850,
      "itiz": 1851,
      "almost": 1852,
      "issu": 1853,
      "isingen": 1854,
      "auer": 1855,
      "sehr": 1856,
      "gender": 1857,
      "schwer": 1858,
      "iers": 1859,
      "ierten": 1860,
      "ums": 1861,
      "construction": 1862,
      "Stand": 1863,
      "result": 1864,
      "Rei": 1865,
      "gang": 1866,
      "sitzen": 1867,
      "2012": 1868,
      "elekt": 1869,
      "Freitag": 1870,
      "darauf": 1871,
      "full": 1872,
      "Frank": 1873,
      "transport": 1874,
      "ombard": 1875,
      "bekannt": 1876,
      "number": 1877,
      "Präsi": 1878,
      "Zusammen": 1879,
      "London": 1880,
      "Sunday": 1881,
      "Con": 1882,
      "Cor": 1883,
      "Dem": 1884,
      "Ka": 1885,
      "Mal": 1886,
      "Op": 1887,
      "Spe": 1888,
      "Tran": 1889,
      "Welt": 1890,
      "cer": 1891,
      "called": 1892,
      "fern": 1893,
      "gra": 1894,
      "griff": 1895,
      "hic": 1896,
      "house": 1897,
      "iar": 1898,
      "iver": 1899,
      "oin": 1900,
      "rän": 1901,
      "right": 1902,
      "sus": 1903,
      "wes": 1904,
      "yo": 1905,
      "äß": 1906,
      "erste": 1907,
      "ana": 1908,
      "essen": 1909,
      "stadt": 1910,
      "isp": 1911,
      "legen": 1912,
      "geht": 1913,
      "gehör": 1914,
      "bele": 1915,
      "schul": 1916,
      "ford": 1917,
      "vehic": 1918,
      "ests": 1919,
      "licher": 1920,
      "warzw": 1921,
      "gesell": 1922,
      "lagen": 1923,
      "beiden": 1924,
      "Behör": 1925,
      "Geor": 1926,
      "going": 1927,
      "days": 1928,
      "sondern": 1929,
      "Ende": 1930,
      "foot": 1931,
      "ights": 1932,
      "konnte": 1933,
      "phone": 1934,
      "macht": 1935,
      "Geschle": 1936,
      "count": 1937,
      "country": 1938,
      "Überwach": 1939,
      "Friday": 1940,
      "verschie": 1941,
      "Woche": 1942,
      "point": 1943,
      "schließlich": 1944,
      "sociation": 1945,
      "ministr": 1946,
      "dafür": 1947,
      "Fir": 1948,
      "Is": 1949,
      "Pe": 1950,
      "Sen": 1951,
      "She": 1952,
      "Sitz": 1953,
      "Ur": 1954,
      "When": 1955,
      "Wahl": 1956,
      "bach": 1957,
      "ehe": 1958,
      "four": 1959,
      "got": 1960,
      "hä": 1961,
      "hung": 1962,
      "hour": 1963,
      "io": 1964,
      "ians": 1965,
      "läu": 1966,
      "ms": 1967,
      "mt": 1968,
      "näch": 1969,
      "pra": 1970,
      "pop": 1971,
      "satz": 1972,
      "voll": 1973,
      "zähl": 1974,
      "äter": 1975,
      "ende": 1976,
      "ines": 1977,
      "inner": 1978,
      "information": 1979,
      "ches": 1980,
      "ants": 1981,
      "unge": 1982,
      "stütz": 1983,
      "least": 1984,
      "row": 1985,
      "ionage": 1986,
      "ically": 1987,
      "olf": 1988,
      "oman": 1989,
      "import": 1990,
      "igte": 1991,
      "rael": 1992,
      "near": 1993,
      "next": 1994,
      "cks": 1995,
      "ety": 1996,
      "etwas": 1997,
      "happ": 1998,
      "ploy": 1999,
      "ivid": 2000,
      "traffic": 2001,
      "sia": 2002,
      "wirk": 2003,
      "appe": 2004,
      "Und": 2005,
      "ganz": 2006,
      "bring": 2007,
      "wohn": 2008,
      "trä": 2009,
      "Gericht": 2010,
      "könne": 2011,
      "ronic": 2012,
      "beson": 2013,
      "vious": 2014,
      "äuß": 2015,
      "Boeing": 2016,
      "athol": 2017,
      "help": 2018,
      "market": 2019,
      "Sonn": 2020,
      "Scot": 2021,
      "hätten": 2022,
      "Eltern": 2023,
      "Council": 2024,
      "concern": 2025,
      "Aben": 2026,
      "Fuß": 2027,
      "Gl": 2028,
      "Hel": 2029,
      "Mor": 2030,
      "Miss": 2031,
      "Ru": 2032,
      "San": 2033,
      "Sing": 2034,
      "Sam": 2035,
      "Town": 2036,
      "citiz": 2037,
      "fts": 2038,
      "ham": 2039,
      "handel": 2040,
      "ider": 2041,
      "kes": 2042,
      "lä": 2043,
      "lassen": 2044,
      "mot": 2045,
      "rum": 2046,
      "sign": 2047,
      "ule": 2048,
      "van": 2049,
      "vent": 2050,
      "enz": 2051,
      "inj": 2052,
      "third": 2053,
      "ons": 2054,
      "stit": 2055,
      "start": 2056,
      "ali": 2057,
      "ators": 2058,
      "reach": 2059,
      "derzeit": 2060,
      "leben": 2061,
      "left": 2062,
      "health": 2063,
      "amt": 2064,
      "verletz": 2065,
      "irl": 2066,
      "iesen": 2067,
      "having": 2068,
      "plant": 2069,
      "meisten": 2070,
      "exam": 2071,
      "supp": 2072,
      "laim": 2073,
      "Ermitt": 2074,
      "anti": 2075,
      "oney": 2076,
      "both": 2077,
      "club": 2078,
      "presen": 2079,
      "ihm": 2080,
      "food": 2081,
      "Flugzeug": 2082,
      "regarding": 2083,
      "invol": 2084,
      "ordne": 2085,
      "free": 2086,
      "visit": 2087,
      "wachsen": 2088,
      "great": 2089,
      "evening": 2090,
      "öffentlich": 2091,
      "Musik": 2092,
      "Passagiere": 2093,
      "Agency": 2094,
      "Reihe": 2095,
      ").": 2096,
      "17": 2097,
      "21": 2098,
      "70": 2099,
      "Ad": 2100,
      "Bank": 2101,
      "Bombard": 2102,
      "Do": 2103,
      "Gre": 2104,
      "Kil": 2105,
      "Kran": 2106,
      "Mö": 2107,
      "Rück": 2108,
      "Wal": 2109,
      "bü": 2110,
      "bau": 2111,
      "bag": 2112,
      "call": 2113,
      "dom": 2114,
      "fig": 2115,
      "hinter": 2116,
      "ix": 2117,
      "later": 2118,
      "na": 2119,
      "pä": 2120,
      "tunnel": 2121,
      "uten": 2122,
      "wahl": 2123,
      "äten": 2124,
      "öl": 2125,
      "erwar": 2126,
      "erhalten": 2127,
      "enden": 2128,
      "anc": 2129,
      "angen": 2130,
      "stop": 2131,
      "gegeben": 2132,
      "einz": 2133,
      "became": 2134,
      "too": 2135,
      "offee": 2136,
      "ily": 2137,
      "heute": 2138,
      "ames": 2139,
      "gend": 2140,
      "edy": 2141,
      "ierungs": 2142,
      "ager": 2143,
      "open": 2144,
      "aff": 2145,
      "meister": 2146,
      "expe": 2147,
      "individ": 2148,
      "few": 2149,
      "iving": 2150,
      "trag": 2151,
      "steht": 2152,
      "Univers": 2153,
      "half": 2154,
      "örper": 2155,
      "ground": 2156,
      "Spiel": 2157,
      "cret": 2158,
      "jekt": 2159,
      "dabei": 2160,
      "polic": 2161,
      "ctors": 2162,
      "fact": 2163,
      "Mail": 2164,
      "ihren": 2165,
      "flight": 2166,
      "Fluggesell": 2167,
      "same": 2168,
      "gewesen": 2169,
      "Thom": 2170,
      "arbeiter": 2171,
      "Exper": 2172,
      "Plan": 2173,
      "Platz": 2174,
      "surve": 2175,
      "ohne": 2176,
      "ßerdem": 2177,
      "course": 2178,
      "amerikanische": 2179,
      "priv": 2180,
      "members": 2181,
      "reported": 2182,
      "profit": 2183,
      "Vegan": 2184,
      "companies": 2185,
      "europ": 2186,
      "Verkehrs": 2187,
      "young": 2188,
      "Scotland": 2189,
      "presented": 2190,
      "Möglich": 2191,
      "45": 2192,
      "Cour": 2193,
      "Geld": 2194,
      "Has": 2195,
      "Jähr": 2196,
      "Lu": 2197,
      "Lord": 2198,
      "Pal": 2199,
      "Tre": 2200,
      "big": 2201,
      "cam": 2202,
      "city": 2203,
      "claim": 2204,
      "dra": 2205,
      "fund": 2206,
      "ga": 2207,
      "häng": 2208,
      "ja": 2209,
      "jahr": 2210,
      "krä": 2211,
      "lon": 2212,
      "ling": 2213,
      "lung": 2214,
      "light": 2215,
      "pat": 2216,
      "pas": 2217,
      "wit": 2218,
      "wic": 2219,
      "zt": 2220,
      "chs": 2221,
      "chem": 2222,
      "church": 2223,
      "remain": 2224,
      "deren": 2225,
      "dete": 2226,
      "bed": 2227,
      "tour": 2228,
      "urteil": 2229,
      "omen": 2230,
      "ably": 2231,
      "ationen": 2232,
      "proper": 2233,
      "plans": 2234,
      "sage": 2235,
      "lob": 2236,
      "ience": 2237,
      "esser": 2238,
      "posed": 2239,
      "ship": 2240,
      "Geheim": 2241,
      "Geisingen": 2242,
      "diesen": 2243,
      "Jahres": 2244,
      "bod": 2245,
      "findet": 2246,
      "Mitglie": 2247,
      "face": 2248,
      "führer": 2249,
      "better": 2250,
      "foreign": 2251,
      "weitere": 2252,
      "Landes": 2253,
      "hören": 2254,
      "small": 2255,
      "appear": 2256,
      "Diese": 2257,
      "including": 2258,
      "hope": 2259,
      "Personen": 2260,
      "sprechen": 2261,
      "größ": 2262,
      "elektron": 2263,
      "Sonntag": 2264,
      "europä": 2265,
      "wickl": 2266,
      "--": 2267,
      "Für": 2268,
      "Kre": 2269,
      "Mur": 2270,
      "Obe": 2271,
      "Su": 2272,
      "Sal": 2273,
      "South": 2274,
      "Ul": 2275,
      "You": 2276,
      "cast": 2277,
      "cuss": 2278,
      "each": 2279,
      "effe": 2280,
      "given": 2281,
      "hor": 2282,
      "jud": 2283,
      "kein": 2284,
      "lim": 2285,
      "vol": 2286,
      "wahr": 2287,
      "wick": 2288,
      "welt": 2289,
      "ätz": 2290,
      "erk": 2291,
      "ched": 2292,
      "anst": 2293,
      "anger": 2294,
      "esse": 2295,
      "once": 2296,
      "oral": 2297,
      "ata": 2298,
      "gether": 2299,
      "become": 2300,
      "ilen": 2301,
      "role": 2302,
      "rown": 2303,
      "icular": 2304,
      "entsche": 2305,
      "imal": 2306,
      "bereit": 2307,
      "ought": 2308,
      "employ": 2309,
      "ney": 2310,
      "umbo": 2311,
      "illance": 2312,
      "mitte": 2313,
      "mitted": 2314,
      "ply": 2315,
      "annivers": 2316,
      "conf": 2317,
      "Strö": 2318,
      "afé": 2319,
      "without": 2320,
      "area": 2321,
      "rik": 2322,
      "warn": 2323,
      "Ansicht": 2324,
      "suc": 2325,
      "gesetzt": 2326,
      "ände": 2327,
      "United": 2328,
      "short": 2329,
      "Ergeb": 2330,
      "bringen": 2331,
      "ified": 2332,
      "idence": 2333,
      "book": 2334,
      "grow": 2335,
      "sych": 2336,
      "useum": 2337,
      "ured": 2338,
      "Untersuch": 2339,
      "however": 2340,
      "ditional": 2341,
      "paign": 2342,
      "weiterhin": 2343,
      "Federal": 2344,
      "ounced": 2345,
      "vision": 2346,
      "Meter": 2347,
      "ology": 2348,
      "After": 2349,
      "court": 2350,
      "provide": 2351,
      "zeuge": 2352,
      "zeugen": 2353,
      "electronic": 2354,
      "position": 2355,
      "authorities": 2356,
      "Milliar": 2357,
      "Edward": 2358,
      "until": 2359,
      "Singap": 2360,
      "surveillance": 2361,
      "Black": 2362,
      "Dr": 2363,
      "Famil": 2364,
      "Gruppe": 2365,
      "Hunde": 2366,
      "Kardin": 2367,
      "Li": 2368,
      "Part": 2369,
      "Tr": 2370,
      "Tele": 2371,
      "West": 2372,
      "Ze": 2373,
      "away": 2374,
      "based": 2375,
      "coll": 2376,
      "cue": 2377,
      "colle": 2378,
      "close": 2379,
      "dort": 2380,
      "fire": 2381,
      "girl": 2382,
      "har": 2383,
      "hre": 2384,
      "hig": 2385,
      "hält": 2386,
      "iben": 2387,
      "join": 2388,
      "kre": 2389,
      "mir": 2390,
      "mid": 2391,
      "oween": 2392,
      "power": 2393,
      "rat": 2394,
      "inge": 2395,
      "chter": 2396,
      "chsel": 2397,
      "though": 2398,
      "anden": 2399,
      "stor": 2400,
      "stud": 2401,
      "itor": 2402,
      "really": 2403,
      "dere": 2404,
      "seat": 2405,
      "eln": 2406,
      "omet": 2407,
      "schein": 2408,
      "iges": 2409,
      "forman": 2410,
      "istor": 2411,
      "ements": 2412,
      "user": 2413,
      "affen": 2414,
      "resear": 2415,
      "Information": 2416,
      "wards": 2417,
      "Schwarzw": 2418,
      "sure": 2419,
      "sucht": 2420,
      "tail": 2421,
      "gestell": 2422,
      "mail": 2423,
      "podi": 2424,
      "ielle": 2425,
      "offer": 2426,
      "doing": 2427,
      "international": 2428,
      "Weg": 2429,
      "schafts": 2430,
      "hlen": 2431,
      "cream": 2432,
      "times": 2433,
      "iled": 2434,
      "Alter": 2435,
      "partment": 2436,
      "particular": 2437,
      "alley": 2438,
      "stellt": 2439,
      "regul": 2440,
      "Europa": 2441,
      "media": 2442,
      "treten": 2443,
      "fallen": 2444,
      "plane": 2445,
      "Beruf": 2446,
      "something": 2447,
      "setzung": 2448,
      "Express": 2449,
      "crimin": 2450,
      "weniger": 2451,
      "System": 2452,
      "würde": 2453,
      "Bundessta": 2454,
      "required": 2455,
      "zahlen": 2456,
      "lossen": 2457,
      "looking": 2458,
      "Medien": 2459,
      "Frage": 2460,
      "metres": 2461,
      "Halloween": 2462,
      "President": 2463,
      "Mayor": 2464,
      "building": 2465,
      "Entscheidung": 2466,
      "gehört": 2467,
      "important": 2468,
      "support": 2469,
      "Bombardier": 2470,
      "University": 2471,
      "Court": 2472,
      "campaign": 2473,
      "body": 2474,
      "anniversary": 2475,
      "Ströbele": 2476,
      "research": 2477,
      "CN": 2478,
      "Dick": 2479,
      "Even": 2480,
      "Fall": 2481,
      "Jumbo": 2482,
      "Mart": 2483,
      "Mäd": 2484,
      "One": 2485,
      "Per": 2486,
      "Pun": 2487,
      "That": 2488,
      "Tunnel": 2489,
      "Wor": 2490,
      "ael": 2491,
      "cas": 2492,
      "cust": 2493,
      "crit": 2494,
      "dau": 2495,
      "equ": 2496,
      "ecut": 2497,
      "fil": 2498,
      "ften": 2499,
      "five": 2500,
      "hold": 2501,
      "jour": 2502,
      "jetzt": 2503,
      "nes": 2504,
      "nam": 2505,
      "ohl": 2506,
      "prü": 2507,
      "psych": 2508,
      "ried": 2509,
      "rimin": 2510,
      "uden": 2511,
      "ene": 2512,
      "enter": 2513,
      "changes": 2514,
      "things": 2515,
      "iele": 2516,
      "iety": 2517,
      "alb": 2518,
      "real": 2519,
      "lex": 2520,
      "einige": 2521,
      "aul": 2522,
      "depen": 2523,
      "deckt": 2524,
      "together": 2525,
      "denn": 2526,
      "verein": 2527,
      "veröffentlich": 2528,
      "entwick": 2529,
      "bert": 2530,
      "website": 2531,
      "agt": 2532,
      "ution": 2533,
      "ots": 2534,
      "werk": 2535,
      "prov": 2536,
      "problem": 2537,
      "announced": 2538,
      "cons": 2539,
      "within": 2540,
      "peri": 2541,
      "pers": 2542,
      "performan": 2543,
      "commen": 2544,
      "Ant": 2545,
      "exchange": 2546,
      "suchen": 2547,
      "igence": 2548,
      "liegt": 2549,
      "liament": 2550,
      "dog": 2551,
      "dogs": 2552,
      "interest": 2553,
      "rong": 2554,
      "Neu": 2555,
      "bleiben": 2556,
      "event": 2557,
      "Char": 2558,
      "2014": 2559,
      "spec": 2560,
      "special": 2561,
      "Maier": 2562,
      "konnten": 2563,
      "2008": 2564,
      "statement": 2565,
      "Febru": 2566,
      "arbeiten": 2567,
      "beginn": 2568,
      "News": 2569,
      "schlä": 2570,
      "Organ": 2571,
      "activ": 2572,
      "deutschen": 2573,
      "Pfar": 2574,
      "Stein": 2575,
      "dienst": 2576,
      "allerdings": 2577,
      "provided": 2578,
      "American": 2579,
      "planned": 2580,
      "Prof": 2581,
      "covered": 2582,
      "question": 2583,
      "uellen": 2584,
      "safety": 2585,
      "Geschäfts": 2586,
      "Präsident": 2587,
      "Behörden": 2588,
      "Peter": 2589,
      "Kranken": 2590,
      "Obeid": 2591,
      "success": 2592,
      "Informationen": 2593,
      "CNN": 2594,
      "Mädchen": 2595,
      "..": 2596,
      "Bur": 2597,
      "Blo": 2598,
      "Bere": 2599,
      "Denn": 2600,
      "Haf": 2601,
      "Ju": 2602,
      "Jul": 2603,
      "Joh": 2604,
      "Kam": 2605,
      "Laut": 2606,
      "Not": 2607,
      "Res": 2608,
      "Rus": 2609,
      "Sach": 2610,
      "Scar": 2611,
      "Tag": 2612,
      "Tour": 2613,
      "War": 2614,
      "bro": 2615,
      "billion": 2616,
      "block": 2617,
      "cardin": 2618,
      "eher": 2619,
      "fu": 2620,
      "fon": 2621,
      "fut": 2622,
      "fell": 2623,
      "fac": 2624,
      "frei": 2625,
      "grün": 2626,
      "hne": 2627,
      "iß": 2628,
      "kosten": 2629,
      "käm": 2630,
      "lach": 2631,
      "mand": 2632,
      "mals": 2633,
      "mäß": 2634,
      "sof": 2635,
      "sid": 2636,
      "var": 2637,
      "wat": 2638,
      "wind": 2639,
      "ying": 2640,
      "zess": 2641,
      "eren": 2642,
      "erfol": 2643,
      "think": 2644,
      "ancial": 2645,
      "itet": 2646,
      "arch": 2647,
      "ished": 2648,
      "report": 2649,
      "recher": 2650,
      "reason": 2651,
      "let": 2652,
      "level": 2653,
      "ichen": 2654,
      "geordne": 2655,
      "deal": 2656,
      "death": 2657,
      "denken": 2658,
      "sechs": 2659,
      "among": 2660,
      "ices": 2661,
      "genau": 2662,
      "verwen": 2663,
      "immen": 2664,
      "schre": 2665,
      "hren": 2666,
      "igung": 2667,
      "oul": 2668,
      "zug": 2669,
      "rad": 2670,
      "abend": 2671,
      "abhäng": 2672,
      "lichkeit": 2673,
      "umf": 2674,
      "annien": 2675,
      "Stunden": 2676,
      "sup": 2677,
      "heraus": 2678,
      "feel": 2679,
      "iker": 2680,
      "account": 2681,
      "quar": 2682,
      "liefer": 2683,
      "offiz": 2684,
      "serious": 2685,
      "situation": 2686,
      "okes": 2687,
      "ption": 2688,
      "selves": 2689,
      "groß": 2690,
      "großen": 2691,
      "große": 2692,
      "compet": 2693,
      "linien": 2694,
      "focus": 2695,
      "particip": 2696,
      "fair": 2697,
      "others": 2698,
      "carry": 2699,
      "discuss": 2700,
      "previous": 2701,
      "üsse": 2702,
      "parents": 2703,
      "Berlin": 2704,
      "ihrem": 2705,
      "Kindern": 2706,
      "Mehr": 2707,
      "telligence": 2708,
      "nahme": 2709,
      "direct": 2710,
      "richten": 2711,
      "Internet": 2712,
      "decision": 2713,
      "amerikanischen": 2714,
      "borough": 2715,
      "Staats": 2716,
      "britannien": 2717,
      "meeting": 2718,
      "different": 2719,
      "economic": 2720,
      "complete": 2721,
      "managed": 2722,
      "Großbritannien": 2723,
      "punkt": 2724,
      "ebenfalls": 2725,
      "Israel": 2726,
      "nächsten": 2727,
      "päck": 2728,
      "urteilt": 2729,
      "entscheiden": 2730,
      "Milliarden": 2731,
      "Martin": 2732,
      "future": 2733,
      "Ass": 2734,
      "BS": 2735,
      "BV": 2736,
      "Brü": 2737,
      "Den": 2738,
      "Dire": 2739,
      "Durch": 2740,
      "Fent": 2741,
      "Gut": 2742,
      "Gover": 2743,
      "Ken": 2744,
      "Kok": 2745,
      "Mich": 2746,
      "Mut": 2747,
      "Mid": 2748,
      "Park": 2749,
      "TV": 2750,
      "Tur": 2751,
      "Val": 2752,
      "bs": 2753,
      "band": 2754,
      "besser": 2755,
      "due": 2756,
      "gaben": 2757,
      "hmen": 2758,
      "ias": 2759,
      "ient": 2760,
      "iff": 2761,
      "kil": 2762,
      "money": 2763,
      "night": 2764,
      "pass": 2765,
      "risk": 2766,
      "smo": 2767,
      "tar": 2768,
      "tung": 2769,
      "ucht": 2770,
      "vest": 2771,
      "wal": 2772,
      "wall": 2773,
      "wort": 2774,
      "yer": 2775,
      "zo": 2776,
      "ös": 2777,
      "erle": 2778,
      "erläu": 2779,
      "stren": 2780,
      "orders": 2781,
      "aly": 2782,
      "ared": 2783,
      "asing": 2784,
      "recor": 2785,
      "ichter": 2786,
      "gebe": 2787,
      "deute": 2788,
      "took": 2789,
      "andid": 2790,
      "heiten": 2791,
      "irth": 2792,
      "schie": 2793,
      "schied": 2794,
      "using": 2795,
      "agre": 2796,
      "abzu": 2797,
      "added": 2798,
      "allow": 2799,
      "design": 2800,
      "confir": 2801,
      "Ange": 2802,
      "means": 2803,
      "early": 2804,
      "fect": 2805,
      "coca": 2806,
      "tragen": 2807,
      "six": 2808,
      "klar": 2809,
      "Produ": 2810,
      "services": 2811,
      "Gesund": 2812,
      "Website": 2813,
      "Sprecher": 2814,
      "dazu": 2815,
      "grund": 2816,
      "gramm": 2817,
      "ritt": 2818,
      "ritten": 2819,
      "ference": 2820,
      "Mitarbeiter": 2821,
      "party": 2822,
      "stellung": 2823,
      "speak": 2824,
      "führen": 2825,
      "beton": 2826,
      "phones": 2827,
      "medical": 2828,
      "Entwickl": 2829,
      "EUR": 2830,
      "Association": 2831,
      "known": 2832,
      "Straße": 2833,
      "haup": 2834,
      "Bürgermeister": 2835,
      "months": 2836,
      "development": 2837,
      "wanted": 2838,
      "wäre": 2839,
      "unsere": 2840,
      "Wohnung": 2841,
      "Tripodi": 2842,
      "railway": 2843,
      "ispiel": 2844,
      "appeal": 2845,
      "Fluggesellschaften": 2846,
      "Thomas": 2847,
      "Palmer": 2848,
      "longer": 2849,
      "gestellt": 2850,
      "custom": 2851,
      "period": 2852,
      "performance": 2853,
      "Johann": 2854,
      "Kokain": 2855,
      "erläuter": 2856,
      "cocaine": 2857,
      "Aber": 2858,
      "Bill": 2859,
      "Dist": 2860,
      "Daten": 2861,
      "Fil": 2862,
      "Gast": 2863,
      "Hö": 2864,
      "How": 2865,
      "House": 2866,
      "Ke": 2867,
      "Ku": 2868,
      "Lie": 2869,
      "Mot": 2870,
      "Mex": 2871,
      "Män": 2872,
      "Oc": 2873,
      "Ok": 2874,
      "Oper": 2875,
      "Off": 2876,
      "Pubert": 2877,
      "Rad": 2878,
      "Rett": 2879,
      "UK": 2880,
      "Zahl": 2881,
      "ather": 2882,
      "cal": 2883,
      "cis": 2884,
      "cell": 2885,
      "cap": 2886,
      "cross": 2887,
      "hoch": 2888,
      "hungen": 2889,
      "ju": 2890,
      "kun": 2891,
      "kten": 2892,
      "lig": 2893,
      "lik": 2894,
      "lange": 2895,
      "rate": 2896,
      "wend": 2897,
      "water": 2898,
      "winn": 2899,
      "yes": 2900,
      "zial": 2901,
      "erweise": 2902,
      "charge": 2903,
      "onnen": 2904,
      "stö": 2905,
      "stück": 2906,
      "ständ": 2907,
      "attem": 2908,
      "isse": 2909,
      "asy": 2910,
      "reag": 2911,
      "reicht": 2912,
      "lead": 2913,
      "einmal": 2914,
      "auran": 2915,
      "behör": 2916,
      "today": 2917,
      "ilt": 2918,
      "ilot": 2919,
      "secut": 2920,
      "security": 2921,
      "amen": 2922,
      "gener": 2923,
      "term": 2924,
      "scht": 2925,
      "sched": 2926,
      "wehr": 2927,
      "force": 2928,
      "rather": 2929,
      "space": 2930,
      "spital": 2931,
      "später": 2932,
      "spokes": 2933,
      "dessen": 2934,
      "propos": 2935,
      "process": 2936,
      "consum": 2937,
      "zeigt": 2938,
      "perform": 2939,
      "percent": 2940,
      "Ind": 2941,
      "execut": 2942,
      "gere": 2943,
      "indust": 2944,
      "iko": 2945,
      "across": 2946,
      "move": 2947,
      "Gegen": 2948,
      "qual": 2949,
      "Problem": 2950,
      "trau": 2951,
      "Leute": 2952,
      "kommt": 2953,
      "ihnen": 2954,
      "anderem": 2955,
      "Chin": 2956,
      "steller": 2957,
      "flug": 2958,
      "working": 2959,
      "rieden": 2960,
      "break": 2961,
      "älder": 2962,
      "themselves": 2963,
      "Rock": 2964,
      "bestät": 2965,
      "systems": 2966,
      "Afric": 2967,
      "match": 2968,
      "uberty": 2969,
      "Besuch": 2970,
      "political": 2971,
      "öffentlichen": 2972,
      "drivers": 2973,
      "agency": 2974,
      "Gemeinde": 2975,
      "continu": 2976,
      "majority": 2977,
      "official": 2978,
      "furt": 2979,
      "Finanz": 2980,
      "drug": 2981,
      "Christian": 2982,
      "ability": 2983,
      "früheren": 2984,
      "community": 2985,
      "kurz": 2986,
      "Transport": 2987,
      "Überwachung": 2988,
      "hours": 2989,
      "Haslach": 2990,
      "Luft": 2991,
      "mittee": 2992,
      "Scarborough": 2993,
      "Fenton": 2994,
      "Government": 2995,
      "October": 2996,
      "Oktober": 2997,
      "Pubertät": 2998,
      "16": 2999,
      "26": 3000,
      "32": 3001,
      "33": 3002,
      "90": 3003,
      "Aktiv": 3004,
      "Alex": 3005,
      "Ben": 3006,
      "Bay": 3007,
      "Care": 3008,
      "Chair": 3009,
      "Coul": 3010,
      "Dar": 3011,
      "Dom": 3012,
      "Dale": 3013,
      "During": 3014,
      "Gu": 3015,
      "Grün": 3016,
      "HS": 3017,
      "Handel": 3018,
      "Hubert": 3019,
      "Kat": 3020,
      "Kunden": 3021,
      "Mil": 3022,
      "PD": 3023,
      "Pat": 3024,
      "Pate": 3025,
      "Publ": 3026,
      "Sh": 3027,
      "Tru": 3028,
      "Toffee": 3029,
      "Wed": 3030,
      "What": 3031,
      "Wolf": 3032,
      "Zoll": 3033,
      "ai": 3034,
      "bill": 3035,
      "clo": 3036,
      "data": 3037,
      "gie": 3038,
      "gute": 3039,
      "glichen": 3040,
      "glau": 3041,
      "gruppe": 3042,
      "hie": 3043,
      "hind": 3044,
      "hnen": 3045,
      "ior": 3046,
      "lier": 3047,
      "lauf": 3048,
      "lungen": 3049,
      "lingen": 3050,
      "mas": 3051,
      "mater": 3052,
      "nä": 3053,
      "ning": 3054,
      "ping": 3055,
      "park": 3056,
      "puberty": 3057,
      "vation": 3058,
      "vour": 3059,
      "win": 3060,
      "zun": 3061,
      "äle": 3062,
      "chingen": 3063,
      "chief": 3064,
      "ances": 3065,
      "stär": 3066,
      "alen": 3067,
      "always": 3068,
      "iser": 3069,
      "ismus": 3070,
      "ret": 3071,
      "reform": 3072,
      "return": 3073,
      "deli": 3074,
      "ington": 3075,
      "bekommen": 3076,
      "ury": 3077,
      "verurteilt": 3078,
      "irche": 3079,
      "immed": 3080,
      "oud": 3081,
      "weis": 3082,
      "racht": 3083,
      "achie": 3084,
      "cke": 3085,
      "cking": 3086,
      "utzen": 3087,
      "administr": 3088,
      "ette": 3089,
      "ument": 3090,
      "aufge": 3091,
      "Thema": 3092,
      "spro": 3093,
      "opt": 3094,
      "destens": 3095,
      "announc": 3096,
      "Start": 3097,
      "Invest": 3098,
      "riend": 3099,
      "Schwe": 3100,
      "benef": 3101,
      "gericht": 3102,
      "ktor": 3103,
      "suffer": 3104,
      "ändern": 3105,
      "ively": 3106,
      "ession": 3107,
      "tradition": 3108,
      "mobil": 3109,
      "antwort": 3110,
      "Projekt": 3111,
      "office": 3112,
      "intersex": 3113,
      "Leiter": 3114,
      "izin": 3115,
      "president": 3116,
      "Arn": 3117,
      "zweiten": 3118,
      "pawn": 3119,
      "darüber": 3120,
      "Wirtschaft": 3121,
      "bud": 3122,
      "planes": 3123,
      "Polit": 3124,
      "Airlines": 3125,
      "music": 3126,
      "Commission": 3127,
      "Comedy": 3128,
      "frage": 3129,
      "himself": 3130,
      "director": 3131,
      "reichen": 3132,
      "asked": 3133,
      "garten": 3134,
      "straße": 3135,
      "Deutsche": 3136,
      "organisation": 3137,
      "increase": 3138,
      "Wochen": 3139,
      "continue": 3140,
      "gelegt": 3141,
      "Festival": 3142,
      "Phil": 3143,
      "wollen": 3144,
      "Chem": 3145,
      "measures": 3146,
      "Richtung": 3147,
      "Sicherheits": 3148,
      "current": 3149,
      "basis": 3150,
      "Rahmen": 3151,
      "family": 3152,
      "jedoch": 3153,
      "Geschlecht": 3154,
      "wirklich": 3155,
      "Abend": 3156,
      "Bloom": 3157,
      "Michael": 3158,
      "Coulson": 3159,
      "Daley": 3160,
      "Patek": 3161,
      "120": 3162,
      "22": 3163,
      "Bü": 3164,
      "Brie": 3165,
      "Cathol": 3166,
      "Dan": 3167,
      "Ener": 3168,
      "FC": 3169,
      "Fä": 3170,
      "Fol": 3171,
      "Fern": 3172,
      "Gen": 3173,
      "Jo": 3174,
      "Kind": 3175,
      "Kosten": 3176,
      "Kraft": 3177,
      "Post": 3178,
      "Roman": 3179,
      "Two": 3180,
      "Wald": 3181,
      "Zwei": 3182,
      "ax": 3183,
      "bit": 3184,
      "black": 3185,
      "cing": 3186,
      "col": 3187,
      "cri": 3188,
      "fä": 3189,
      "flo": 3190,
      "glob": 3191,
      "han": 3192,
      "hund": 3193,
      "hum": 3194,
      "hard": 3195,
      "ials": 3196,
      "ift": 3197,
      "kers": 3198,
      "lar": 3199,
      "litt": 3200,
      "lights": 3201,
      "meine": 3202,
      "nie": 3203,
      "pan": 3204,
      "pur": 3205,
      "sat": 3206,
      "tun": 3207,
      "uk": 3208,
      "vir": 3209,
      "yet": 3210,
      "ßnahmen": 3211,
      "äste": 3212,
      "äft": 3213,
      "another": 3214,
      "anwalt": 3215,
      "uni": 3216,
      "story": 3217,
      "staff": 3218,
      "ield": 3219,
      "ately": 3220,
      "arri": 3221,
      "tele": 3222,
      "ichten": 3223,
      "einigen": 3224,
      "einschließlich": 3225,
      "bezeich": 3226,
      "behaup": 3227,
      "seen": 3228,
      "held": 3229,
      "heiß": 3230,
      "tend": 3231,
      "irit": 3232,
      "schri": 3233,
      "berichte": 3234,
      "outs": 3235,
      "weisen": 3236,
      "wechsel": 3237,
      "forn": 3238,
      "emphas": 3239,
      "owed": 3240,
      "iding": 3241,
      "alles": 3242,
      "ctive": 3243,
      "spa": 3244,
      "spar": 3245,
      "deshalb": 3246,
      "plac": 3247,
      "State": 3248,
      "zept": 3249,
      "senten": 3250,
      "Schott": 3251,
      "School": 3252,
      "tage": 3253,
      "gesetz": 3254,
      "iken": 3255,
      "laun": 3256,
      "ivil": 3257,
      "Reise": 3258,
      "potent": 3259,
      "wirtschaft": 3260,
      "mov": 3261,
      "ären": 3262,
      "Prozess": 3263,
      "reno": 3264,
      "wohl": 3265,
      "class": 3266,
      "akob": 3267,
      "Art": 3268,
      "Department": 3269,
      "Max": 3270,
      "pped": 3271,
      "nehmer": 3272,
      "äude": 3273,
      "gebracht": 3274,
      "2009": 3275,
      "ditions": 3276,
      "phys": 3277,
      "altung": 3278,
      "Nachrichten": 3279,
      "möchte": 3280,
      "ishes": 3281,
      "ächlich": 3282,
      "wait": 3283,
      "surger": 3284,
      "contro": 3285,
      "Franz": 3286,
      "bestimm": 3287,
      "Frauen": 3288,
      "sexual": 3289,
      "ändler": 3290,
      "iative": 3291,
      "ziehen": 3292,
      "location": 3293,
      "Markt": 3294,
      "ändert": 3295,
      "haupt": 3296,
      "ministerium": 3297,
      "ühren": 3298,
      "präsent": 3299,
      "gemeinsam": 3300,
      "jährigen": 3301,
      "hätte": 3302,
      "planning": 3303,
      "Centre": 3304,
      "Fragen": 3305,
      "stock": 3306,
      "Wasser": 3307,
      "777": 3308,
      "further": 3309,
      "gefunden": 3310,
      "questions": 3311,
      "schnell": 3312,
      "wichtig": 3313,
      "energy": 3314,
      "Sicherheit": 3315,
      "knapp": 3316,
      "Frankfurt": 3317,
      "vehicles": 3318,
      "Firmen": 3319,
      "Mission": 3320,
      "injured": 3321,
      "aliforn": 3322,
      "verletzt": 3323,
      "individual": 3324,
      "policy": 3325,
      "kräfte": 3326,
      "Kardinäle": 3327,
      "Telefon": 3328,
      "Schwarzwälder": 3329,
      "daugh": 3330,
      "equip": 3331,
      "Gesundheits": 3332,
      "Männer": 3333,
      "continued": 3334,
      "budget": 3335,
      "Schottland": 3336,
      "Bul": 3337,
      "Bör": 3338,
      "Buch": 3339,
      "Café": 3340,
      "Dav": 3341,
      "Em": 3342,
      "Fo": 3343,
      "Fel": 3344,
      "Fach": 3345,
      "GM": 3346,
      "Häuß": 3347,
      "Kur": 3348,
      "Kerr": 3349,
      "Lage": 3350,
      "Ms": 3351,
      "Malley": 3352,
      "Ries": 3353,
      "Rang": 3354,
      "Satur": 3355,
      "Ter": 3356,
      "Tit": 3357,
      "Times": 3358,
      "Vo": 3359,
      "Wil": 3360,
      "Wash": 3361,
      "aden": 3362,
      "athan": 3363,
      "ban": 3364,
      "cu": 3365,
      "cann": 3366,
      "craft": 3367,
      "dorf": 3368,
      "fle": 3369,
      "fem": 3370,
      "fäng": 3371,
      "feld": 3372,
      "friend": 3373,
      "gow": 3374,
      "hy": 3375,
      "joy": 3376,
      "ked": 3377,
      "kür": 3378,
      "list": 3379,
      "late": 3380,
      "mein": 3381,
      "mel": 3382,
      "män": 3383,
      "might": 3384,
      "nick": 3385,
      "rig": 3386,
      "ramm": 3387,
      "tick": 3388,
      "uge": 3389,
      "uter": 3390,
      "vit": 3391,
      "wissen": 3392,
      "öt": 3393,
      "indepen": 3394,
      "thüll": 3395,
      "onn": 3396,
      "onto": 3397,
      "stay": 3398,
      "stät": 3399,
      "itung": 3400,
      "orig": 3401,
      "atives": 3402,
      "ises": 3403,
      "asch": 3404,
      "asgow": 3405,
      "recht": 3406,
      "tete": 3407,
      "geh": 3408,
      "auto": 3409,
      "außerdem": 3410,
      "defin": 3411,
      "beck": 3412,
      "total": 3413,
      "urg": 3414,
      "secret": 3415,
      "died": 3416,
      "heard": 3417,
      "amte": 3418,
      "vertreten": 3419,
      "entdeckt": 3420,
      "weap": 3421,
      "usst": 3422,
      "owitz": 3423,
      "ctic": 3424,
      "mittag": 3425,
      "isches": 3426,
      "spl": 3427,
      "spend": 3428,
      "plowitz": 3429,
      "ults": 3430,
      "conditions": 3431,
      "States": 3432,
      "kept": 3433,
      "Angel": 3434,
      "Anwalt": 3435,
      "Angriff": 3436,
      "Schw": 3437,
      "Veränder": 3438,
      "Diego": 3439,
      "ängen": 3440,
      "soon": 3441,
      "nichts": 3442,
      "Auft": 3443,
      "shop": 3444,
      "access": 3445,
      "ftig": 3446,
      "liegen": 3447,
      "ließen": 3448,
      "Programm": 3449,
      "halts": 3450,
      "trie": 3451,
      "idents": 3452,
      "box": 3453,
      "boten": 3454,
      "unterstütz": 3455,
      "clin": 3456,
      "Security": 3457,
      "finally": 3458,
      "events": 3459,
      "syl": 3460,
      "Mittw": 3461,
      "seines": 3462,
      "stellte": 3463,
      "news": 3464,
      "ppen": 3465,
      "sollten": 3466,
      "diffic": 3467,
      "telle": 3468,
      "ünd": 3469,
      "2006": 3470,
      "treffen": 3471,
      "vict": 3472,
      "Wirt": 3473,
      "saying": 3474,
      "Ampel": 3475,
      "Feuer": 3476,
      "Abgeordne": 3477,
      "ächst": 3478,
      "blick": 3479,
      "Plane": 3480,
      "199": 3481,
      "caused": 3482,
      "schluss": 3483,
      "folgen": 3484,
      "helfen": 3485,
      "lesen": 3486,
      "lawyer": 3487,
      "Schulze": 3488,
      "matter": 3489,
      "Pfand": 3490,
      "250": 3491,
      "personal": 3492,
      "tained": 3493,
      "products": 3494,
      "expert": 3495,
      "Australia": 3496,
      "Australian": 3497,
      "born": 3498,
      "increasing": 3499,
      "reports": 3500,
      "accident": 3501,
      "icipal": 3502,
      "investigation": 3503,
      "Service": 3504,
      "ütt": 3505,
      "responsible": 3506,
      "iction": 3507,
      "Autofahr": 3508,
      "simply": 3509,
      "believe": 3510,
      "protection": 3511,
      "welche": 3512,
      "recently": 3513,
      "Britain": 3514,
      "Kaplowitz": 3515,
      "ränk": 3516,
      "verschieden": 3517,
      "ehemal": 3518,
      "Glasgow": 3519,
      "Ruby": 3520,
      "citizen": 3521,
      "example": 3522,
      "involved": 3523,
      "expected": 3524,
      "nesday": 3525,
      "Organisation": 3526,
      "Geschäftsführer": 3527,
      "cardinals": 3528,
      "offizie": 3529,
      "BVB": 3530,
      "District": 3531,
      "HS2": 3532,
      "Wednesday": 3533,
      "Arnold": 3534,
      "David": 3535,
      "Häußler": 3536,
      "Saturday": 3537,
      "Washington": 3538,
      "Mittwoch": 3539,
      "difficult": 3540,
      "',": 3541,
      ".,": 3542,
      "42": 3543,
      "?\"": 3544,
      "BI": 3545,
      "Bis": 3546,
      "Bre": 3547,
      "Bed": 3548,
      "Dam": 3549,
      "Fur": 3550,
      "Frü": 3551,
      "Gener": 3552,
      "Hen": 3553,
      "Hor": 3554,
      "Hol": 3555,
      "Hir": 3556,
      "Hack": 3557,
      "Jan": 3558,
      "June": 3559,
      "Juni": 3560,
      "Ker": 3561,
      "Kür": 3562,
      "My": 3563,
      "Mein": 3564,
      "Mir": 3565,
      "Nik": 3566,
      "Nutz": 3567,
      "OP": 3568,
      "Pap": 3569,
      "Past": 3570,
      "Richter": 3571,
      "Saf": 3572,
      "Spr": 3573,
      "Some": 3574,
      "Vol": 3575,
      "Zwe": 3576,
      "ails": 3577,
      "bung": 3578,
      "cru": 3579,
      "dür": 3580,
      "div": 3581,
      "eg": 3582,
      "fun": 3583,
      "gung": 3584,
      "give": 3585,
      "hes": 3586,
      "hinder": 3587,
      "job": 3588,
      "jakob": 3589,
      "keinen": 3590,
      "low": 3591,
      "mile": 3592,
      "nat": 3593,
      "nder": 3594,
      "oo": 3595,
      "rul": 3596,
      "sst": 3597,
      "sle": 3598,
      "somet": 3599,
      "wand": 3600,
      "west": 3601,
      "za": 3602,
      "zte": 3603,
      "zang": 3604,
      "zune": 3605,
      "Änder": 3606,
      "äne": 3607,
      "öhn": 3608,
      "ero": 3609,
      "erzähl": 3610,
      "inst": 3611,
      "inken": 3612,
      "inform": 3613,
      "inspe": 3614,
      "inzwischen": 3615,
      "inside": 3616,
      "anten": 3617,
      "ales": 3618,
      "aled": 3619,
      "altern": 3620,
      "reve": 3621,
      "represent": 3622,
      "derat": 3623,
      "teen": 3624,
      "teid": 3625,
      "geber": 3626,
      "geheim": 3627,
      "bef": 3628,
      "bew": 3629,
      "beha": 3630,
      "bedeute": 3631,
      "often": 3632,
      "seem": 3633,
      "sequ": 3634,
      "seek": 3635,
      "hear": 3636,
      "vergangen": 3637,
      "imple": 3638,
      "empf": 3639,
      "ague": 3640,
      "abor": 3641,
      "utes": 3642,
      "haber": 3643,
      "ither": 3644,
      "prove": 3645,
      "ulation": 3646,
      "contra": 3647,
      "concept": 3648,
      "residents": 3649,
      "commission": 3650,
      "thern": 3651,
      "aher": 3652,
      "gerade": 3653,
      "suit": 3654,
      "super": 3655,
      "takt": 3656,
      "taking": 3657,
      "indung": 3658,
      "änge": 3659,
      "ived": 3660,
      "traditional": 3661,
      "ranz": 3662,
      "stead": 3663,
      "Beg": 3664,
      "moved": 3665,
      "Einsatz": 3666,
      "ized": 3667,
      "Enthüll": 3668,
      "assum": 3669,
      "Vorsitzen": 3670,
      "jeder": 3671,
      "Altern": 3672,
      "evidence": 3673,
      "getar": 3674,
      "2015": 3675,
      "Mazang": 3676,
      "carried": 3677,
      "kontro": 3678,
      "teilung": 3679,
      "workers": 3680,
      "discovered": 3681,
      "host": 3682,
      "uchten": 3683,
      "paper": 3684,
      "phy": 3685,
      "Fehl": 3686,
      "möchten": 3687,
      "airlines": 3688,
      "Berichte": 3689,
      "Obam": 3690,
      "Geschichte": 3691,
      "ologie": 3692,
      "crime": 3693,
      "Francis": 3694,
      "Ort": 3695,
      "deutlich": 3696,
      "deutsche": 3697,
      "Zeitung": 3698,
      "Monat": 3699,
      "iately": 3700,
      "öffentliche": 3701,
      "legte": 3702,
      "decis": 3703,
      "Hausen": 3704,
      "allerg": 3705,
      "kleinen": 3706,
      "Music": 3707,
      "choose": 3708,
      "Staaten": 3709,
      "Hansjakob": 3710,
      "slam": 3711,
      "weiß": 3712,
      "leaders": 3713,
      "error": 3714,
      "Baden": 3715,
      "While": 3716,
      "receive": 3717,
      "Richtlinien": 3718,
      "address": 3719,
      "currently": 3720,
      "Syria": 3721,
      "released": 3722,
      "considered": 3723,
      "Situation": 3724,
      "training": 3725,
      "issues": 3726,
      "certain": 3727,
      "iversit": 3728,
      "suspe": 3729,
      "schuldig": 3730,
      "fordable": 3731,
      "häuser": 3732,
      "besonders": 3733,
      "Samstag": 3734,
      "reached": 3735,
      "europäischen": 3736,
      "study": 3737,
      "Jugend": 3738,
      "zogen": 3739,
      "streng": 3740,
      "Office": 3741,
      "crossing": 3742,
      "kunft": 3743,
      "likely": 3744,
      "hieß": 3745,
      "Catholic": 3746,
      "little": 3747,
      "heißt": 3748,
      "emphasised": 3749,
      "Termin": 3750,
      "cannot": 3751,
      "männ": 3752,
      "Planeten": 3753,
      "zunehmen": 3754,
      "Mazanga": 3755,
      "24": 3756,
      "31": 3757,
      "Aut": 3758,
      "Aren": 3759,
      "BC": 3760,
      "Bru": 3761,
      "Biden": 3762,
      "Chen": 3763,
      "City": 3764,
      "Clin": 3765,
      "Dre": 3766,
      "Ear": 3767,
      "Hy": 3768,
      "Hal": 3769,
      "His": 3770,
      "Hau": 3771,
      "Hund": 3772,
      "Hare": 3773,
      "High": 3774,
      "Here": 3775,
      "Hunder": 3776,
      "Ill": 3777,
      "Ihre": 3778,
      "Je": 3779,
      "Jon": 3780,
      "Kamp": 3781,
      "Körper": 3782,
      "Lo": 3783,
      "Lat": 3784,
      "Mat": 3785,
      "Müll": 3786,
      "Messe": 3787,
      "Nas": 3788,
      "Paw": 3789,
      "Russ": 3790,
      "Rolle": 3791,
      "Raum": 3792,
      "SV": 3793,
      "Sm": 3794,
      "Sto": 3795,
      "Test": 3796,
      "Tha": 3797,
      "Wel": 3798,
      "aid": 3799,
      "aded": 3800,
      "bahn": 3801,
      "broad": 3802,
      "cli": 3803,
      "card": 3804,
      "dest": 3805,
      "date": 3806,
      "dark": 3807,
      "ever": 3808,
      "fal": 3809,
      "gress": 3810,
      "hm": 3811,
      "hiel": 3812,
      "hib": 3813,
      "hunder": 3814,
      "len": 3815,
      "lat": 3816,
      "lad": 3817,
      "lby": 3818,
      "länd": 3819,
      "mag": 3820,
      "mass": 3821,
      "messen": 3822,
      "nt": 3823,
      "pted": 3824,
      "ror": 3825,
      "uen": 3826,
      "uelle": 3827,
      "vat": 3828,
      "vill": 3829,
      "via": 3830,
      "went": 3831,
      "waffen": 3832,
      "Är": 3833,
      "Öff": 3834,
      "äre": 3835,
      "erlau": 3836,
      "erhö": 3837,
      "erreicht": 3838,
      "inc": 3839,
      "inz": 3840,
      "intelligence": 3841,
      "anzu": 3842,
      "unk": 3843,
      "stet": 3844,
      "stage": 3845,
      "itte": 3846,
      "along": 3847,
      "atic": 3848,
      "attra": 3849,
      "refer": 3850,
      "ley": 3851,
      "gekommen": 3852,
      "geworden": 3853,
      "gefahren": 3854,
      "gemacht": 3855,
      "gepäck": 3856,
      "defen": 3857,
      "beein": 3858,
      "behind": 3859,
      "tom": 3860,
      "towards": 3861,
      "round": 3862,
      "seats": 3863,
      "icated": 3864,
      "vert": 3865,
      "terday": 3866,
      "termin": 3867,
      "igs": 3868,
      "achten": 3869,
      "usually": 3870,
      "absol": 3871,
      "ada": 3872,
      "advis": 3873,
      "ays": 3874,
      "ope": 3875,
      "hafen": 3876,
      "prochen": 3877,
      "wasser": 3878,
      "platz": 3879,
      "conta": 3880,
      "common": 3881,
      "loss": 3882,
      "Schinken": 3883,
      "extre": 3884,
      "expen": 3885,
      "earn": 3886,
      "feat": 3887,
      "federal": 3888,
      "ika": 3889,
      "laden": 3890,
      "Regel": 3891,
      "pose": 3892,
      "track": 3893,
      "range": 3894,
      "Außen": 3895,
      "Author": 3896,
      "appl": 3897,
      "Unfall": 3898,
      "Beweg": 3899,
      "shire": 3900,
      "Gebur": 3901,
      "Gechingen": 3902,
      "Gefäng": 3903,
      "live": 3904,
      "doc": 3905,
      "ifen": 3906,
      "fühl": 3907,
      "tritt": 3908,
      "interview": 3909,
      "anson": 3910,
      "answer": 3911,
      "board": 3912,
      "clus": 3913,
      "price": 3914,
      "präch": 3915,
      "prison": 3916,
      "Nev": 3917,
      "mindestens": 3918,
      "pressed": 3919,
      "Seite": 3920,
      "Spionage": 3921,
      "Spirit": 3922,
      "ährung": 3923,
      "daq": 3924,
      "links": 3925,
      "akia": 3926,
      "iedrich": 3927,
      "Chor": 3928,
      "2013": 3929,
      "centre": 3930,
      "reiber": 3931,
      "reiben": 3932,
      "Flughafen": 3933,
      "gewähl": 3934,
      "male": 3935,
      "führung": 3936,
      "Europä": 3937,
      "geboren": 3938,
      "2005": 3939,
      "path": 3940,
      "paar": 3941,
      "pair": 3942,
      "Freuden": 3943,
      "treat": 3944,
      "curren": 3945,
      "airline": 3946,
      "aircraft": 3947,
      "Immobil": 3948,
      "damals": 3949,
      "stands": 3950,
      "setzt": 3951,
      "hinaus": 3952,
      "cided": 3953,
      "ikaner": 3954,
      "musste": 3955,
      "handlung": 3956,
      "neues": 3957,
      "wenig": 3958,
      "Friedrich": 3959,
      "guide": 3960,
      "guests": 3961,
      "started": 3962,
      "Affordable": 3963,
      "changed": 3964,
      "Parte": 3965,
      "Parish": 3966,
      "municipal": 3967,
      "Bundeslig": 3968,
      "zeugt": 3969,
      "avo": 3970,
      "asket": 3971,
      "Andre": 3972,
      "trotz": 3973,
      "experience": 3974,
      "require": 3975,
      "Moore": 3976,
      "Nortel": 3977,
      "Scott": 3978,
      "Handgepäck": 3979,
      "ührung": 3980,
      "staat": 3981,
      "jährige": 3982,
      "choir": 3983,
      "accused": 3984,
      "America": 3985,
      "Central": 3986,
      "Kommission": 3987,
      "Series": 3988,
      "wants": 3989,
      "district": 3990,
      "true": 3991,
      "arbeitet": 3992,
      "Phuk": 3993,
      "technical": 3994,
      "Gebäude": 3995,
      "Club": 3996,
      "trial": 3997,
      "Johnson": 3998,
      "costs": 3999,
      "besteht": 4000,
      "British": 4001,
      "Rahner": 4002,
      "Standard": 4003,
      "Opschlag": 4004,
      "cerem": 4005,
      "vehicle": 4006,
      "Georg": 4007,
      "pract": 4008,
      "concerns": 4009,
      "motiv": 4010,
      "Kilome": 4011,
      "private": 4012,
      "Möglichkeiten": 4013,
      "chemical": 4014,
      "property": 4015,
      "Mitglieder": 4016,
      "Salz": 4017,
      "effect": 4018,
      "Singapur": 4019,
      "Familie": 4020,
      "Party": 4021,
      "persön": 4022,
      "Pfarr": 4023,
      "Russia": 4024,
      "mäßig": 4025,
      "seriously": 4026,
      "Mutter": 4027,
      "confirmed": 4028,
      "betonte": 4029,
      "Entwicklung": 4030,
      "customers": 4031,
      "Johanna": 4032,
      "erläuterte": 4033,
      "behörde": 4034,
      "executive": 4035,
      "industry": 4036,
      "China": 4037,
      "Africa": 4038,
      "deliver": 4039,
      "immediately": 4040,
      "Philip": 4041,
      "largest": 4042,
      "Rangnick": 4043,
      "female": 4044,
      "origin": 4045,
      "weapons": 4046,
      "Wirtschafts": 4047,
      "vergangenen": 4048,
      "Arena": 4049,
      "Clinton": 4050,
      "Latakia": 4051,
      "Nasdaq": 4052,
      "Pawlby": 4053,
      "Gefängnis": 4054,
      "Act": 4055,
      "Akt": 4056,
      "Aktion": 4057,
      "Bro": 4058,
      "Camer": 4059,
      "Dien": 4060,
      "Dort": 4061,
      "Eis": 4062,
      "Frei": 4063,
      "Gäste": 4064,
      "Islam": 4065,
      "Jag": 4066,
      "Licht": 4067,
      "Los": 4068,
      "MP": 4069,
      "Museum": 4070,
      "Nicht": 4071,
      "Natur": 4072,
      "Pier": 4073,
      "Rest": 4074,
      "Rauch": 4075,
      "Sil": 4076,
      "Sel": 4077,
      "Sup": 4078,
      "Tö": 4079,
      "Terror": 4080,
      "Von": 4081,
      "Viele": 4082,
      "Win": 4083,
      "Wahr": 4084,
      "Während": 4085,
      "Zw": 4086,
      "blich": 4087,
      "bot": 4088,
      "bott": 4089,
      "birth": 4090,
      "dle": 4091,
      "ehen": 4092,
      "eight": 4093,
      "fas": 4094,
      "gage": 4095,
      "hon": 4096,
      "hous": 4097,
      "häu": 4098,
      "histor": 4099,
      "huge": 4100,
      "iju": 4101,
      "kar": 4102,
      "mn": 4103,
      "mund": 4104,
      "museum": 4105,
      "nic": 4106,
      "oir": 4107,
      "pul": 4108,
      "pend": 4109,
      "pup": 4110,
      "run": 4111,
      "rise": 4112,
      "runn": 4113,
      "rates": 4114,
      "sätz": 4115,
      "tt": 4116,
      "uert": 4117,
      "vell": 4118,
      "voc": 4119,
      "vacc": 4120,
      "wed": 4121,
      "wid": 4122,
      "writ": 4123,
      "woman": 4124,
      "wrong": 4125,
      "ziel": 4126,
      "ächt": 4127,
      "enjoy": 4128,
      "iner": 4129,
      "anim": 4130,
      "anken": 4131,
      "online": 4132,
      "stein": 4133,
      "stum": 4134,
      "stri": 4135,
      "stoff": 4136,
      "standen": 4137,
      "itself": 4138,
      "iet": 4139,
      "iegen": 4140,
      "aren": 4141,
      "asman": 4142,
      "redu": 4143,
      "regel": 4144,
      "gehe": 4145,
      "geführt": 4146,
      "geplant": 4147,
      "einander": 4148,
      "austral": 4149,
      "audien": 4150,
      "decided": 4151,
      "bewer": 4152,
      "betra": 4153,
      "began": 4154,
      "beding": 4155,
      "ilä": 4156,
      "ilar": 4157,
      "ility": 4158,
      "seh": 4159,
      "verbre": 4160,
      "verkehr": 4161,
      "vermut": 4162,
      "versucht": 4163,
      "verteid": 4164,
      "irm": 4165,
      "entlichkeit": 4166,
      "schw": 4167,
      "schuss": 4168,
      "schutz": 4169,
      "schränk": 4170,
      "raf": 4171,
      "race": 4172,
      "achen": 4173,
      "never": 4174,
      "ush": 4175,
      "aging": 4176,
      "addition": 4177,
      "liches": 4178,
      "otin": 4179,
      "otine": 4180,
      "spot": 4181,
      "spying": 4182,
      "opf": 4183,
      "ausgest": 4184,
      "descri": 4185,
      "prob": 4186,
      "proced": 4187,
      "annte": 4188,
      "conne": 4189,
      "Stu": 4190,
      "demon": 4191,
      "key": 4192,
      "rescue": 4193,
      "committee": 4194,
      "love": 4195,
      "Schü": 4196,
      "Schutz": 4197,
      "exten": 4198,
      "gern": 4199,
      "ellen": 4200,
      "sug": 4201,
      "tast": 4202,
      "making": 4203,
      "fees": 4204,
      "feier": 4205,
      "ikal": 4206,
      "überzeugt": 4207,
      "trade": 4208,
      "sian": 4209,
      "sieht": 4210,
      "Augen": 4211,
      "steuer": 4212,
      "Universit": 4213,
      "klasse": 4214,
      "mosp": 4215,
      "mother": 4216,
      "model": 4217,
      "Ern": 4218,
      "hnt": 4219,
      "liber": 4220,
      "serve": 4221,
      "Gespräch": 4222,
      "internal": 4223,
      "ubilä": 4224,
      "ennt": 4225,
      "schaffen": 4226,
      "Einz": 4227,
      "Einricht": 4228,
      "bleme": 4229,
      "Seit": 4230,
      "Sport": 4231,
      "Engl": 4232,
      "final": 4233,
      "financial": 4234,
      "ritte": 4235,
      "ferenz": 4236,
      "noon": 4237,
      "speed": 4238,
      "spekt": 4239,
      "region": 4240,
      "üng": 4241,
      "Freil": 4242,
      "states": 4243,
      "therefore": 4244,
      "weiteren": 4245,
      "victim": 4246,
      "buy": 4247,
      "afternoon": 4248,
      "damage": 4249,
      "standard": 4250,
      "ological": 4251,
      "zeitig": 4252,
      "Forsch": 4253,
      "atsächlich": 4254,
      "ledge": 4255,
      "Only": 4256,
      "folg": 4257,
      "France": 4258,
      "erstmals": 4259,
      "network": 4260,
      "müsse": 4261,
      "Zusch": 4262,
      "laws": 4263,
      "Schulen": 4264,
      "Monaten": 4265,
      "fragen": 4266,
      "direkt": 4267,
      "iatric": 4268,
      "Pfle": 4269,
      "occas": 4270,
      "Fahrer": 4271,
      "Fahrzeuge": 4272,
      "trans": 4273,
      "sicherung": 4274,
      "weekend": 4275,
      "kamen": 4276,
      "kampf": 4277,
      "Australien": 4278,
      "gypt": 4279,
      "increased": 4280,
      "Americans": 4281,
      "subject": 4282,
      "Lebens": 4283,
      "initially": 4284,
      "initiative": 4285,
      "Blick": 4286,
      "gefähr": 4287,
      "wollte": 4288,
      "Presse": 4289,
      "received": 4290,
      "Betrie": 4291,
      "doesn": 4292,
      "Minister": 4293,
      "appropri": 4294,
      "dream": 4295,
      "Vereinigten": 4296,
      "Quart": 4297,
      "programme": 4298,
      "transportation": 4299,
      "weshalb": 4300,
      "citizens": 4301,
      "lässt": 4302,
      "Ermittlungen": 4303,
      "Administr": 4304,
      "domin": 4305,
      "Experten": 4306,
      "Möglichkeit": 4307,
      "Jährigen": 4308,
      "Jährige": 4309,
      "witter": 4310,
      "elektronischer": 4311,
      "judge": 4312,
      "employe": 4313,
      "rika": 4314,
      "Ergebnis": 4315,
      "growth": 4316,
      "joint": 4317,
      "criminal": 4318,
      "Profess": 4319,
      "successful": 4320,
      "kämp": 4321,
      "watch": 4322,
      "erfolgre": 4323,
      "Gutach": 4324,
      "target": 4325,
      "Motor": 4326,
      "Rettung": 4327,
      "attempt": 4328,
      "Chairman": 4329,
      "Chemie": 4330,
      "Brief": 4331,
      "renovation": 4332,
      "gemeinsamen": 4333,
      "Angeles": 4334,
      "Further": 4335,
      "Henne": 4336,
      "Nikotin": 4337,
      "sometimes": 4338,
      "behavi": 4339,
      "Haupt": 4340,
      "Russland": 4341,
      "Öffentlichkeit": 4342,
      "guidelines": 4343,
      "Phuket": 4344,
      "häufig": 4345,
      "ijuana": 4346,
      "nicotine": 4347,
      "vermutlich": 4348,
      "Universität": 4349,
      "27": 4350,
      "29": 4351,
      "36": 4352,
      "37": 4353,
      "300": 4354,
      "325": 4355,
      "500": 4356,
      "67": 4357,
      "80": 4358,
      "Bam": 4359,
      "Bra": 4360,
      "Bow": 4361,
      "Bild": 4362,
      "Bütt": 4363,
      "CSeries": 4364,
      "Des": 4365,
      "Edu": 4366,
      "Fund": 4367,
      "Fren": 4368,
      "Gas": 4369,
      "Gott": 4370,
      "Gaz": 4371,
      "Hu": 4372,
      "Hin": 4373,
      "Hof": 4374,
      "Hause": 4375,
      "Händler": 4376,
      "Jungen": 4377,
      "Janson": 4378,
      "Jubilä": 4379,
      "Kar": 4380,
      "Mü": 4381,
      "Mär": 4382,
      "Mark": 4383,
      "Merk": 4384,
      "Netz": 4385,
      "Nord": 4386,
      "Ral": 4387,
      "Ris": 4388,
      "Rom": 4389,
      "Riesen": 4390,
      "RBS": 4391,
      "SW": 4392,
      "Sor": 4393,
      "Sof": 4394,
      "Sänger": 4395,
      "Tod": 4396,
      "Tiere": 4397,
      "TSV": 4398,
      "Viel": 4399,
      "Vision": 4400,
      "Wach": 4401,
      "Winter": 4402,
      "Watz": 4403,
      "Wett": 4404,
      "Wissen": 4405,
      "Yah": 4406,
      "Zug": 4407,
      "aver": 4408,
      "action": 4409,
      "aktion": 4410,
      "ahead": 4411,
      "bun": 4412,
      "blie": 4413,
      "bile": 4414,
      "bauen": 4415,
      "cil": 4416,
      "cir": 4417,
      "dung": 4418,
      "dou": 4419,
      "dlich": 4420,
      "fired": 4421,
      "field": 4422,
      "gate": 4423,
      "gold": 4424,
      "gives": 4425,
      "gänger": 4426,
      "jà": 4427,
      "jem": 4428,
      "kan": 4429,
      "kal": 4430,
      "keiner": 4431,
      "knew": 4432,
      "kirche": 4433,
      "lay": 4434,
      "lum": 4435,
      "mes": 4436,
      "mill": 4437,
      "non": 4438,
      "oon": 4439,
      "poll": 4440,
      "pack": 4441,
      "pionage": 4442,
      "ring": 4443,
      "sun": 4444,
      "sion": 4445,
      "sold": 4446,
      "south": 4447,
      "tit": 4448,
      "table": 4449,
      "ufen": 4450,
      "uled": 4451,
      "wähl": 4452,
      "women": 4453,
      "ya": 4454,
      "zer": 4455,
      "éjà": 4456,
      "erkann": 4457,
      "erwä": 4458,
      "enth": 4459,
      "enough": 4460,
      "inten": 4461,
      "inne": 4462,
      "ination": 4463,
      "ths": 4464,
      "stimm": 4465,
      "itäten": 4466,
      "orgt": 4467,
      "alte": 4468,
      "ativ": 4469,
      "arg": 4470,
      "isiert": 4471,
      "reten": 4472,
      "revel": 4473,
      "derson": 4474,
      "teile": 4475,
      "lect": 4476,
      "leicht": 4477,
      "iche": 4478,
      "geplan": 4479,
      "gehören": 4480,
      "def": 4481,
      "deten": 4482,
      "inger": 4483,
      "beteil": 4484,
      "denten": 4485,
      "anda": 4486,
      "ands": 4487,
      "andy": 4488,
      "amten": 4489,
      "gene": 4490,
      "genu": 4491,
      "verhalten": 4492,
      "verkauf": 4493,
      "verantwort": 4494,
      "ira": 4495,
      "els": 4496,
      "else": 4497,
      "schm": 4498,
      "schwar": 4499,
      "schließen": 4500,
      "igkeiten": 4501,
      "outhern": 4502,
      "weder": 4503,
      "zuf": 4504,
      "forts": 4505,
      "forward": 4506,
      "istle": 4507,
      "isting": 4508,
      "ache": 4509,
      "abge": 4510,
      "ado": 4511,
      "ids": 4512,
      "ides": 4513,
      "estag": 4514,
      "ump": 4515,
      "optim": 4516,
      "opport": 4517,
      "werte": 4518,
      "werfen": 4519,
      "haft": 4520,
      "haps": 4521,
      "auszu": 4522,
      "annual": 4523,
      "ultim": 4524,
      "condu": 4525,
      "zeigen": 4526,
      "zeigte": 4527,
      "compl": 4528,
      "senior": 4529,
      "log": 4530,
      "mean": 4531,
      "extra": 4532,
      "express": 4533,
      "ruck": 4534,
      "tails": 4535,
      "Vertre": 4536,
      "Veranst": 4537,
      "gestern": 4538,
      "earlier": 4539,
      "sour": 4540,
      "Reu": 4541,
      "peace": 4542,
      "sibil": 4543,
      "mention": 4544,
      "Außerdem": 4545,
      "merk": 4546,
      "steig": 4547,
      "Beim": 4548,
      "acter": 4549,
      "accompan": 4550,
      "kler": 4551,
      "mobile": 4552,
      "Geh": 4553,
      "Gewalt": 4554,
      "antwor": 4555,
      "ernalb": 4556,
      "Prosecut": 4557,
      "sagten": 4558,
      "halle": 4559,
      "offers": 4560,
      "202": 4561,
      "bronn": 4562,
      "ify": 4563,
      "fügte": 4564,
      "angel": 4565,
      "ible": 4566,
      "iburg": 4567,
      "ätze": 4568,
      "Weise": 4569,
      "örung": 4570,
      "unternehmen": 4571,
      "Gerster": 4572,
      "izer": 4573,
      "ization": 4574,
      "besten": 4575,
      "Secret": 4576,
      "lando": 4577,
      "assign": 4578,
      "jeden": 4579,
      "Chanc": 4580,
      "factor": 4581,
      "favour": 4582,
      "zweite": 4583,
      "spee": 4584,
      "Mai": 4585,
      "Maßnahmen": 4586,
      "newspa": 4587,
      "gewalt": 4588,
      "führte": 4589,
      "ünst": 4590,
      "2007": 4591,
      "Regional": 4592,
      "Freiburg": 4593,
      "parliament": 4594,
      "letzt": 4595,
      "Amt": 4596,
      "Among": 4597,
      "Nacht": 4598,
      "igerlo": 4599,
      "planets": 4600,
      "kommenden": 4601,
      "Techn": 4602,
      "Bericht": 4603,
      "orses": 4604,
      "begin": 4605,
      "begann": 4606,
      "ports": 4607,
      "Herr": 4608,
      "Hermann": 4609,
      "Kindergarten": 4610,
      "Meilen": 4611,
      "hinzu": 4612,
      "cient": 4613,
      "geschlagen": 4614,
      "geschlossen": 4615,
      "surpr": 4616,
      "telling": 4617,
      "tellungen": 4618,
      "Forest": 4619,
      "Online": 4620,
      "hands": 4621,
      "Umbau": 4622,
      "Orlando": 4623,
      "Zukunft": 4624,
      "ohle": 4625,
      "ollegen": 4626,
      "immt": 4627,
      "Monate": 4628,
      "Parliament": 4629,
      "Besch": 4630,
      "frühen": 4631,
      "frühere": 4632,
      "played": 4633,
      "reiche": 4634,
      "avail": 4635,
      "iskus": 4636,
      "legal": 4637,
      "Kirch": 4638,
      "experien": 4639,
      "vielen": 4640,
      "Unternehmens": 4641,
      "restauran": 4642,
      "Sonnen": 4643,
      "kleine": 4644,
      "Arbeits": 4645,
      "include": 4646,
      "Handy": 4647,
      "markt": 4648,
      "präche": 4649,
      "Barack": 4650,
      "followed": 4651,
      "sorge": 4652,
      "tention": 4653,
      "spielen": 4654,
      "britischen": 4655,
      "Komment": 4656,
      "kündig": 4657,
      "schools": 4658,
      "officials": 4659,
      "efforts": 4660,
      "Yorkshire": 4661,
      "leave": 4662,
      "Teilnehmer": 4663,
      "drugs": 4664,
      "Bahnüber": 4665,
      "morning": 4666,
      "similar": 4667,
      "receiving": 4668,
      "ification": 4669,
      "Werm": 4670,
      "eigene": 4671,
      "vote": 4672,
      "Süd": 4673,
      "miles": 4674,
      "nalist": 4675,
      "phase": 4676,
      "Sitzen": 4677,
      "character": 4678,
      "Haigerlo": 4679,
      "Frankreich": 4680,
      "Georges": 4681,
      "nearly": 4682,
      "happen": 4683,
      "wohner": 4684,
      "Morsi": 4685,
      "stitut": 4686,
      "Green": 4687,
      "büro": 4688,
      "Veganer": 4689,
      "fundament": 4690,
      "Geheimdienst": 4691,
      "Murphy": 4692,
      "Ergebnisse": 4693,
      "Untersuchung": 4694,
      "Singapore": 4695,
      "higher": 4696,
      "stories": 4697,
      "particularly": 4698,
      "riminal": 4699,
      "veröffentlicht": 4700,
      "entwickelt": 4701,
      "Februar": 4702,
      "February": 4703,
      "beginnt": 4704,
      "schläge": 4705,
      "Bereich": 4706,
      "Haft": 4707,
      "letter": 4708,
      "abhängigkeit": 4709,
      "umfassen": 4710,
      "Mehrheit": 4711,
      "directly": 4712,
      "Staatsanwalt": 4713,
      "completely": 4714,
      "Director": 4715,
      "Mexic": 4716,
      "scheduled": 4717,
      "spokesperson": 4718,
      "Rockstar": 4719,
      "Besucher": 4720,
      "Katie": 4721,
      "Zollernalb": 4722,
      "material": 4723,
      "näher": 4724,
      "zunächst": 4725,
      "suffered": 4726,
      "Energie": 4727,
      "Fällen": 4728,
      "satis": 4729,
      "potential": 4730,
      "surgery": 4731,
      "Börsen": 4732,
      "Feuerwehr": 4733,
      "verschiedene": 4734,
      "Kerry": 4735,
      "revealed": 4736,
      "bedeutet": 4737,
      "Beginn": 4738,
      "decisions": 4739,
      "Jonathan": 4740,
      "Müller": 4741,
      "broadcast": 4742,
      "stetten": 4743,
      "Nevada": 4744,
      "Freudenstadt": 4745,
      "Bundesliga": 4746,
      "asketball": 4747,
      "Selbst": 4748,
      "running": 4749,
      "animals": 4750,
      "suggest": 4751,
      "Einzel": 4752,
      "Chemiewaffen": 4753,
      "behaviour": 4754,
      "Bamford": 4755,
      "Büttner": 4756,
      "French": 4757,
      "Gazprom": 4758,
      "Yahoo": 4759,
      "opportun": 4760,
      "newspaper": 4761,
      "35": 4762,
      "Band": 4763,
      "Bem": 4764,
      "Bus": 4765,
      "Bad": 4766,
      "Best": 4767,
      "CS": 4768,
      "CW": 4769,
      "Cre": 4770,
      "Cap": 4771,
      "Californ": 4772,
      "DP": 4773,
      "Disk": 4774,
      "Ev": 4775,
      "Egypt": 4776,
      "Foll": 4777,
      "Gel": 4778,
      "Gold": 4779,
      "HT": 4780,
      "Hoff": 4781,
      "Jour": 4782,
      "Just": 4783,
      "Ko": 4784,
      "Kü": 4785,
      "Lin": 4786,
      "Lang": 4787,
      "Many": 4788,
      "Nä": 4789,
      "Nur": 4790,
      "Now": 4791,
      "NSW": 4792,
      "Of": 4793,
      "Other": 4794,
      "Old": 4795,
      "Pen": 4796,
      "Pan": 4797,
      "Pri": 4798,
      "Phas": 4799,
      "Pfer": 4800,
      "Passen": 4801,
      "Rö": 4802,
      "Sw": 4803,
      "Soll": 4804,
      "Squ": 4805,
      "Soc": 4806,
      "Tier": 4807,
      "Tage": 4808,
      "Twitter": 4809,
      "UN": 4810,
      "Vier": 4811,
      "Voll": 4812,
      "Wall": 4813,
      "Zent": 4814,
      "broug": 4815,
      "bald": 4816,
      "batt": 4817,
      "cle": 4818,
      "cab": 4819,
      "cul": 4820,
      "cember": 4821,
      "civil": 4822,
      "dank": 4823,
      "fung": 4824,
      "fear": 4825,
      "fans": 4826,
      "fang": 4827,
      "fass": 4828,
      "gn": 4829,
      "gilt": 4830,
      "ided": 4831,
      "junge": 4832,
      "jüng": 4833,
      "ki": 4834,
      "krit": 4835,
      "kunde": 4836,
      "lag": 4837,
      "lot": 4838,
      "listen": 4839,
      "living": 4840,
      "meiner": 4841,
      "mauer": 4842,
      "name": 4843,
      "nament": 4844,
      "nommen": 4845,
      "natur": 4846,
      "nutzen": 4847,
      "ocr": 4848,
      "pit": 4849,
      "purch": 4850,
      "pick": 4851,
      "pfl": 4852,
      "pilot": 4853,
      "ration": 4854,
      "raum": 4855,
      "san": 4856,
      "sil": 4857,
      "sung": 4858,
      "wide": 4859,
      "wider": 4860,
      "yard": 4861,
      "zember": 4862,
      "ähn": 4863,
      "ersch": 4864,
      "erfahren": 4865,
      "insp": 4866,
      "income": 4867,
      "chtet": 4868,
      "challen": 4869,
      "espionage": 4870,
      "sted": 4871,
      "stain": 4872,
      "stelle": 4873,
      "strong": 4874,
      "theology": 4875,
      "orts": 4876,
      "alter": 4877,
      "attet": 4878,
      "ars": 4879,
      "arily": 4880,
      "isieren": 4881,
      "association": 4882,
      "reco": 4883,
      "repe": 4884,
      "reds": 4885,
      "rechts": 4886,
      "reconstruction": 4887,
      "teten": 4888,
      "tegr": 4889,
      "text": 4890,
      "lei": 4891,
      "einzu": 4892,
      "außer": 4893,
      "deck": 4894,
      "dead": 4895,
      "bezahlen": 4896,
      "beispiel": 4897,
      "urance": 4898,
      "dence": 4899,
      "iland": 4900,
      "ilfe": 4901,
      "roll": 4902,
      "sec": 4903,
      "sek": 4904,
      "separ": 4905,
      "unds": 4906,
      "amb": 4907,
      "amin": 4908,
      "icism": 4909,
      "icians": 4910,
      "verurs": 4911,
      "verhinder": 4912,
      "terms": 4913,
      "terror": 4914,
      "eline": 4915,
      "entire": 4916,
      "ima": 4917,
      "schalten": 4918,
      "schütz": 4919,
      "igar": 4920,
      "weib": 4921,
      "wegs": 4922,
      "wealth": 4923,
      "rab": 4924,
      "radi": 4925,
      "istic": 4926,
      "emp": 4927,
      "emot": 4928,
      "ierungen": 4929,
      "neun": 4930,
      "nete": 4931,
      "neut": 4932,
      "neigh": 4933,
      "negot": 4934,
      "usual": 4935,
      "aby": 4936,
      "owers": 4937,
      "advan": 4938,
      "admitted": 4939,
      "additional": 4940,
      "eständ": 4941,
      "ceed": 4942,
      "aufzu": 4943,
      "spit": 4944,
      "spra": 4945,
      "oph": 4946,
      "wert": 4947,
      "why": 4948,
      "ausländ": 4949,
      "confl": 4950,
      "conference": 4951,
      "Stimm": 4952,
      "keten": 4953,
      "affair": 4954,
      "respe": 4955,
      "Ins": 4956,
      "Innen": 4957,
      "saw": 4958,
      "sense": 4959,
      "rian": 4960,
      "rige": 4961,
      "ribut": 4962,
      "lost": 4963,
      "Angeb": 4964,
      "lying": 4965,
      "Schau": 4966,
      "expressed": 4967,
      "benöt": 4968,
      "ffäre": 4969,
      "ruch": 4970,
      "rufe": 4971,
      "sustain": 4972,
      "Verhalten": 4973,
      "Verbre": 4974,
      "Verfahren": 4975,
      "gesamt": 4976,
      "gesagt": 4977,
      "gesprochen": 4978,
      "änden": 4979,
      "maß": 4980,
      "makes": 4981,
      "makers": 4982,
      "feiert": 4983,
      "überwach": 4984,
      "beide": 4985,
      "coal": 4986,
      "Rede": 4987,
      "trading": 4988,
      "llt": 4989,
      "ller": 4990,
      "rant": 4991,
      "endlich": 4992,
      "endorf": 4993,
      "apart": 4994,
      "worfen": 4995,
      "Bezie": 4996,
      "Bedenken": 4997,
      "Beispiel": 4998,
      "shut": 4999,
      "ganze": 5000,
      "gangs": 5001,
      "notice": 5002,
      "acqu": 5003,
      "klagt": 5004,
      "moder": 5005,
      "que": 5006,
      "Erfahr": 5007,
      "agegen": 5008,
      "series": 5009,
      "rück": 5010,
      "goals": 5011,
      "Jahrhunder": 5012,
      "Gesell": 5013,
      "sitz": 5014,
      "sites": 5015,
      "interess": 5016,
      "ört": 5017,
      "Einschränk": 5018,
      "minutes": 5019,
      "Seel": 5020,
      "Seiten": 5021,
      "whose": 5022,
      "klärung": 5023,
      "lands": 5024,
      "creme": 5025,
      "create": 5026,
      "credit": 5027,
      "owners": 5028,
      "Flight": 5029,
      "Voraus": 5030,
      "Vorteile": 5031,
      "fert": 5032,
      "check": 5033,
      "parties": 5034,
      "allem": 5035,
      "allein": 5036,
      "father": 5037,
      "December": 5038,
      "Dezember": 5039,
      "corpor": 5040,
      "cents": 5041,
      "ihres": 5042,
      "Unterstütz": 5043,
      "viol": 5044,
      "works": 5045,
      "hospital": 5046,
      "strasse": 5047,
      "gewinnen": 5048,
      "gewöhn": 5049,
      "regular": 5050,
      "prepar": 5051,
      "typ": 5052,
      "monitor": 5053,
      "statements": 5054,
      "mehrere": 5055,
      "daran": 5056,
      "Feier": 5057,
      "rieben": 5058,
      "Abbott": 5059,
      "Impf": 5060,
      "breite": 5061,
      "begle": 5062,
      "Boden": 5063,
      "blon": 5064,
      "cially": 5065,
      "Once": 5066,
      "folge": 5067,
      "green": 5068,
      "Frau": 5069,
      "actually": 5070,
      "müssten": 5071,
      "nahm": 5072,
      "Bundestag": 5073,
      "venue": 5074,
      "Kontro": 5075,
      "teams": 5076,
      "turned": 5077,
      "occur": 5078,
      "Fahrzeug": 5079,
      "north": 5080,
      "zentrum": 5081,
      "politischen": 5082,
      "dienste": 5083,
      "strafe": 5084,
      "operation": 5085,
      "operate": 5086,
      "driving": 5087,
      "Hauses": 5088,
      "iums": 5089,
      "Strafe": 5090,
      "Straßen": 5091,
      "klein": 5092,
      "groups": 5093,
      "sichtlich": 5094,
      "Donnerstagabend": 5095,
      "italien": 5096,
      "shows": 5097,
      "elections": 5098,
      "sorgen": 5099,
      "Staat": 5100,
      "points": 5101,
      "heads": 5102,
      "subsid": 5103,
      "künftig": 5104,
      "stood": 5105,
      "scand": 5106,
      "programm": 5107,
      "Dabei": 5108,
      "wollten": 5109,
      "schnitt": 5110,
      "White": 5111,
      "bruch": 5112,
      "economy": 5113,
      "value": 5114,
      "measure": 5115,
      "protect": 5116,
      "celebration": 5117,
      "Gesetzes": 5118,
      "Syrien": 5119,
      "release": 5120,
      "milit": 5121,
      "communic": 5122,
      "Vereins": 5123,
      "normalerweise": 5124,
      "bieten": 5125,
      "charges": 5126,
      "wonder": 5127,
      "Corn": 5128,
      "griffen": 5129,
      "football": 5130,
      "Überwachungs": 5131,
      "verschiedenen": 5132,
      "happy": 5133,
      "besondere": 5134,
      "handelt": 5135,
      "stitution": 5136,
      "visitors": 5137,
      "bags": 5138,
      "nahe": 5139,
      "einzel": 5140,
      "claims": 5141,
      "patents": 5142,
      "tourist": 5143,
      "größte": 5144,
      "größten": 5145,
      "Mursi": 5146,
      "growing": 5147,
      "Untersuchungen": 5148,
      "Familien": 5149,
      "Berufung": 5150,
      "Bundesstaaten": 5151,
      "problems": 5152,
      "specific": 5153,
      "Juli": 5154,
      "Kammer": 5155,
      "Rescue": 5156,
      "suppl": 5157,
      "participants": 5158,
      "discussion": 5159,
      "previously": 5160,
      "Turn": 5161,
      "Film": 5162,
      "Höhe": 5163,
      "proposals": 5164,
      "Indust": 5165,
      "Publik": 5166,
      "closer": 5167,
      "glauben": 5168,
      "achieved": 5169,
      "Schweizer": 5170,
      "Politiker": 5171,
      "flood": 5172,
      "global": 5173,
      "human": 5174,
      "behauptet": 5175,
      "schriften": 5176,
      "berichtete": 5177,
      "outside": 5178,
      "launched": 5179,
      "movement": 5180,
      "Franziskus": 5181,
      "Bulgar": 5182,
      "General": 5183,
      "Kürbis": 5184,
      "Nutzung": 5185,
      "OPCW": 5186,
      "Papst": 5187,
      "Änderungen": 5188,
      "Enthüllungen": 5189,
      "Obamas": 5190,
      "Kampag": 5191,
      "Thailand": 5192,
      "latest": 5193,
      "expensive": 5194,
      "Authority": 5195,
      "ceremony": 5196,
      "Pfarrgemein": 5197,
      "Cameroon": 5198,
      "houses": 5199,
      "pupils": 5200,
      "vaccine": 5201,
      "demonstr": 5202,
      "Professor": 5203,
      "erfolgreich": 5204,
      "Gottes": 5205,
      "Merkel": 5206,
      "Watzke": 5207,
      "verantwortlich": 5208,
      "zufrieden": 5209,
      "istlebl": 5210,
      "accompanied": 5211,
      "speech": 5212,
      "available": 5213,
      "Wermter": 5214,
      "Haigerloch": 5215,
      "Bemü": 5216,
      "California": 5217,
      "Following": 5218,
      "Society": 5219,
      "brought": 5220,
      "conflict": 5221,
      "Angebot": 5222,
      "Unterstützung": 5223,
      "46": 5224,
      "Bel": 5225,
      "Big": 5226,
      "Bla": 5227,
      "Benn": 5228,
      "Bron": 5229,
      "Brä": 5230,
      "Bash": 5231,
      "Baum": 5232,
      "Bali": 5233,
      "Brown": 5234,
      "Can": 5235,
      "Cos": 5236,
      "Dis": 5237,
      "Dou": 5238,
      "Dres": 5239,
      "Down": 5240,
      "Dinge": 5241,
      "Déjà": 5242,
      "East": 5243,
      "Edis": 5244,
      "Frieden": 5245,
      "FDP": 5246,
      "GP": 5247,
      "GV": 5248,
      "Gar": 5249,
      "Gru": 5250,
      "Grü": 5251,
      "Hü": 5252,
      "Han": 5253,
      "Hier": 5254,
      "Hüt": 5255,
      "IM": 5256,
      "IT": 5257,
      "Ide": 5258,
      "Ihr": 5259,
      "Jose": 5260,
      "Kan": 5261,
      "Kaf": 5262,
      "Krit": 5263,
      "Kamer": 5264,
      "Kalten": 5265,
      "Kohle": 5266,
      "Lau": 5267,
      "Lud": 5268,
      "Lanc": 5269,
      "Mer": 5270,
      "Met": 5271,
      "Main": 5272,
      "Mub": 5273,
      "Mater": 5274,
      "Moh": 5275,
      "MGV": 5276,
      "NY": 5277,
      "Nat": 5278,
      "Nag": 5279,
      "Namen": 5280,
      "Open": 5281,
      "Pa": 5282,
      "Paten": 5283,
      "Pfull": 5284,
      "Pliber": 5285,
      "Rhen": 5286,
      "Rally": 5287,
      "Rio": 5288,
      "Sicht": 5289,
      "Szen": 5290,
      "Such": 5291,
      "Since": 5292,
      "Santi": 5293,
      "SPD": 5294,
      "Stelle": 5295,
      "Tor": 5296,
      "Tal": 5297,
      "Tick": 5298,
      "Tagen": 5299,
      "Tony": 5300,
      "Tages": 5301,
      "Vf": 5302,
      "Vu": 5303,
      "Vis": 5304,
      "Wert": 5305,
      "Ya": 5306,
      "awei": 5307,
      "bat": 5308,
      "bol": 5309,
      "bare": 5310,
      "bly": 5311,
      "boll": 5312,
      "bran": 5313,
      "bomb": 5314,
      "cation": 5315,
      "coffee": 5316,
      "café": 5317,
      "digt": 5318,
      "dritten": 5319,
      "dagegen": 5320,
      "ei": 5321,
      "fel": 5322,
      "fill": 5323,
      "fien": 5324,
      "fli": 5325,
      "figh": 5326,
      "fish": 5327,
      "gin": 5328,
      "gig": 5329,
      "gard": 5330,
      "gain": 5331,
      "hle": 5332,
      "hur": 5333,
      "hou": 5334,
      "hab": 5335,
      "hang": 5336,
      "häl": 5337,
      "horses": 5338,
      "jun": 5339,
      "ka": 5340,
      "kö": 5341,
      "kü": 5342,
      "kind": 5343,
      "kap": 5344,
      "klage": 5345,
      "kennt": 5346,
      "ls": 5347,
      "lu": 5348,
      "lament": 5349,
      "lower": 5350,
      "loud": 5351,
      "mur": 5352,
      "mic": 5353,
      "ned": 5354,
      "nied": 5355,
      "pH": 5356,
      "pet": 5357,
      "page": 5358,
      "rt": 5359,
      "rau": 5360,
      "ries": 5361,
      "riers": 5362,
      "solle": 5363,
      "sweise": 5364,
      "tä": 5365,
      "tatsächlich": 5366,
      "uals": 5367,
      "wär": 5368,
      "wunder": 5369,
      "wish": 5370,
      "winner": 5371,
      "yal": 5372,
      "zdem": 5373,
      "Özdem": 5374,
      "erous": 5375,
      "ermittel": 5376,
      "envir": 5377,
      "inker": 5378,
      "chmal": 5379,
      "thought": 5380,
      "thias": 5381,
      "animal": 5382,
      "onment": 5383,
      "stie": 5384,
      "station": 5385,
      "stron": 5386,
      "stanz": 5387,
      "stände": 5388,
      "stimmen": 5389,
      "altet": 5390,
      "atten": 5391,
      "atmosp": 5392,
      "arak": 5393,
      "reisen": 5394,
      "represented": 5395,
      "recommen": 5396,
      "derby": 5397,
      "leist": 5398,
      "legt": 5399,
      "getr": 5400,
      "gegangen": 5401,
      "deed": 5402,
      "defe": 5403,
      "decl": 5404,
      "beauf": 5405,
      "beli": 5406,
      "behalten": 5407,
      "tos": 5408,
      "uren": 5409,
      "ural": 5410,
      "oft": 5411,
      "iles": 5412,
      "ionen": 5413,
      "sele": 5414,
      "diet": 5415,
      "heut": 5416,
      "genie": 5417,
      "verw": 5418,
      "verpf": 5419,
      "verändert": 5420,
      "olo": 5421,
      "olit": 5422,
      "entsprechen": 5423,
      "omes": 5424,
      "schott": 5425,
      "igungs": 5426,
      "zuvor": 5427,
      "zuletzt": 5428,
      "forces": 5429,
      "rain": 5430,
      "raised": 5431,
      "istan": 5432,
      "emer": 5433,
      "emails": 5434,
      "achsen": 5435,
      "necess": 5436,
      "ables": 5437,
      "adult": 5438,
      "idung": 5439,
      "estic": 5440,
      "estim": 5441,
      "licht": 5442,
      "umn": 5443,
      "umgesetzt": 5444,
      "ctions": 5445,
      "ürlich": 5446,
      "ichtlich": 5447,
      "spo": 5448,
      "sprün": 5449,
      "ops": 5450,
      "wertung": 5451,
      "hacking": 5452,
      "proje": 5453,
      "Star": 5454,
      "Stad": 5455,
      "Stimmen": 5456,
      "keys": 5457,
      "mensee": 5458,
      "resident": 5459,
      "ressed": 5460,
      "results": 5461,
      "perfect": 5462,
      "comment": 5463,
      "warten": 5464,
      "Ang": 5465,
      "Analy": 5466,
      "Anfang": 5467,
      "lyn": 5468,
      "meant": 5469,
      "Schen": 5470,
      "Schre": 5471,
      "exp": 5472,
      "rule": 5473,
      "ktions": 5474,
      "suffic": 5475,
      "indungen": 5476,
      "herr": 5477,
      "Dieter": 5478,
      "gesehen": 5479,
      "sodass": 5480,
      "maker": 5481,
      "lap": 5482,
      "counter": 5483,
      "Recht": 5484,
      "Reisen": 5485,
      "artphones": 5486,
      "romos": 5487,
      "travell": 5488,
      "Auff": 5489,
      "steigen": 5490,
      "igent": 5491,
      "Union": 5492,
      "vorsitzen": 5493,
      "shine": 5494,
      "shots": 5495,
      "acy": 5496,
      "klag": 5497,
      "mod": 5498,
      "Gewinn": 5499,
      "Project": 5500,
      "Probleme": 5501,
      "renz": 5502,
      "wobei": 5503,
      "wood": 5504,
      "doctor": 5505,
      "doctors": 5506,
      "rückt": 5507,
      "goal": 5508,
      "Gesamt": 5509,
      "angemessen": 5510,
      "tras": 5511,
      "tries": 5512,
      "trend": 5513,
      "traum": 5514,
      "ueMax": 5515,
      "boy": 5516,
      "untersuchen": 5517,
      "unterschied": 5518,
      "schafft": 5519,
      "Einige": 5520,
      "prim": 5521,
      "Neben": 5522,
      "ogramm": 5523,
      "iziert": 5524,
      "besitz": 5525,
      "ipeline": 5526,
      "Sebeli": 5527,
      "ody": 5528,
      "whole": 5529,
      "created": 5530,
      "komple": 5531,
      "Eng": 5532,
      "ihof": 5533,
      "assung": 5534,
      "assist": 5535,
      "finanz": 5536,
      "Vorschriften": 5537,
      "daily": 5538,
      "Also": 5539,
      "Alters": 5540,
      "akes": 5541,
      "polize": 5542,
      "Heute": 5543,
      "2010": 5544,
      "Arctic": 5545,
      "fail": 5546,
      "ighted": 5547,
      "election": 5548,
      "Mails": 5549,
      "central": 5550,
      "teilen": 5551,
      "teilte": 5552,
      "Aussage": 5553,
      "gelö": 5554,
      "Flugzeugen": 5555,
      "hohen": 5556,
      "hood": 5557,
      "Europas": 5558,
      "bisher": 5559,
      "fahrt": 5560,
      "Regierungs": 5561,
      "Frelim": 5562,
      "Freihof": 5563,
      "medizin": 5564,
      "schaftler": 5565,
      "These": 5566,
      "machte": 5567,
      "anyone": 5568,
      "parishes": 5569,
      "letzte": 5570,
      "Amts": 5571,
      "Feder": 5572,
      "Nachdem": 5573,
      "Hotel": 5574,
      "Hospital": 5575,
      "fully": 5576,
      "Auftrag": 5577,
      "begins": 5578,
      "150": 5579,
      "ideas": 5580,
      "missions": 5581,
      "Heraus": 5582,
      "197": 5583,
      "198": 5584,
      "Landung": 5585,
      "countries": 5586,
      "Police": 5587,
      "Rosen": 5588,
      "Roger": 5589,
      "öffingen": 5590,
      "greater": 5591,
      "bestand": 5592,
      "mussten": 5593,
      "erster": 5594,
      "Comp": 5595,
      "Umfrage": 5596,
      "starten": 5597,
      "Zeitpunkt": 5598,
      "autor": 5599,
      "Monkeys": 5600,
      "Amerika": 5601,
      "fragt": 5602,
      "investments": 5603,
      "Bestellungen": 5604,
      "direction": 5605,
      "Pfund": 5606,
      "players": 5607,
      "myself": 5608,
      "ashire": 5609,
      "politik": 5610,
      "Steuer": 5611,
      "Stefan": 5612,
      "Interview": 5613,
      "product": 5614,
      "production": 5615,
      "March": 5616,
      "decade": 5617,
      "operating": 5618,
      "driver": 5619,
      "requir": 5620,
      "festival": 5621,
      "prior": 5622,
      "weeks": 5623,
      "although": 5624,
      "Mode": 5625,
      "everything": 5626,
      "sowohl": 5627,
      "tests": 5628,
      "Rennen": 5629,
      "includes": 5630,
      "Gemeinderat": 5631,
      "Medizin": 5632,
      "Group": 5633,
      "businesses": 5634,
      "holiday": 5635,
      "bekannte": 5636,
      "slow": 5637,
      "hopes": 5638,
      "stoß": 5639,
      "officially": 5640,
      "developed": 5641,
      "distance": 5642,
      "trucks": 5643,
      "student": 5644,
      "Aller": 5645,
      "Dazu": 5646,
      "leader": 5647,
      "Financial": 5648,
      "Baiers": 5649,
      "Vegetar": 5650,
      "dram": 5651,
      "Hochsch": 5652,
      "kaufs": 5653,
      "morgen": 5654,
      "Gebühren": 5655,
      "größer": 5656,
      "Klein": 5657,
      "built": 5658,
      "Minuten": 5659,
      "fordert": 5660,
      "approach": 5661,
      "eigenen": 5662,
      "singing": 5663,
      "azz": 5664,
      "pedest": 5665,
      "Wieder": 5666,
      "promised": 5667,
      "Stream": 5668,
      "Strecke": 5669,
      "Entscheidungen": 5670,
      "jedes": 5671,
      "wonach": 5672,
      "issue": 5673,
      "Präsidenten": 5674,
      "Corteen": 5675,
      "Malmon": 5676,
      "Opfer": 5677,
      "Urteil": 5678,
      "Wahlen": 5679,
      "popular": 5680,
      "appeals": 5681,
      "concerned": 5682,
      "Fußball": 5683,
      "Fußgänger": 5684,
      "Helm": 5685,
      "Morr": 5686,
      "Samsung": 5687,
      "motor": 5688,
      "wachsene": 5689,
      "Grem": 5690,
      "Kilogramm": 5691,
      "Waltrau": 5692,
      "domestic": 5693,
      "ölker": 5694,
      "erwarten": 5695,
      "erwartet": 5696,
      "expect": 5697,
      "policies": 5698,
      "457": 5699,
      "gabe": 5700,
      "Mitglied": 5701,
      "appearance": 5702,
      "europäische": 5703,
      "Kreis": 5704,
      "Ultras": 5705,
      "weltweit": 5706,
      "Trend": 5707,
      "girls": 5708,
      "kreis": 5709,
      "scheinlich": 5710,
      "Perry": 5711,
      "World": 5712,
      "critical": 5713,
      "providing": 5714,
      "commented": 5715,
      "Anti": 5716,
      "activity": 5717,
      "activities": 5718,
      "Steinberg": 5719,
      "Krankenhaus": 5720,
      "...": 5721,
      "Burfien": 5722,
      "Hafen": 5723,
      "kostenlose": 5724,
      "various": 5725,
      "verwendet": 5726,
      "quarter": 5727,
      "liefert": 5728,
      "Israeli": 5729,
      "Assange": 5730,
      "Midgard": 5731,
      "Valero": 5732,
      "ValueMax": 5733,
      "record": 5734,
      "agreed": 5735,
      "Angela": 5736,
      "Produkte": 5737,
      "Operation": 5738,
      "Operationen": 5739,
      "yesterday": 5740,
      "stöße": 5741,
      "asylum": 5742,
      "performed": 5743,
      "bestätigt": 5744,
      "Transportation": 5745,
      "parking": 5746,
      "administration": 5747,
      "announcement": 5748,
      "benefit": 5749,
      "benefits": 5750,
      "Daniel": 5751,
      "colour": 5752,
      "hundreds": 5753,
      "bezeichnet": 5754,
      "waiting": 5755,
      "777X": 5756,
      "daughters": 5757,
      "Wilhel": 5758,
      "kürz": 5759,
      "ticket": 5760,
      "independent": 5761,
      "stätte": 5762,
      "Schwanz": 5763,
      "Veränderung": 5764,
      "victory": 5765,
      "Beding": 5766,
      "Hirschen": 5767,
      "Miranda": 5768,
      "Richterin": 5769,
      "Vorsitzende": 5770,
      "Illmensee": 5771,
      "Matthias": 5772,
      "village": 5773,
      "termined": 5774,
      "absolute": 5775,
      "extrem": 5776,
      "currency": 5777,
      "Immobilien": 5778,
      "Partei": 5779,
      "avoid": 5780,
      "Eiscreme": 5781,
      "Silver": 5782,
      "Wahrheit": 5783,
      "wedding": 5784,
      "writing": 5785,
      "audience": 5786,
      "ausgestattet": 5787,
      "described": 5788,
      "probably": 5789,
      "Schüler": 5790,
      "Einrichtungen": 5791,
      "Quartal": 5792,
      "Administration": 5793,
      "Furthermore": 5794,
      "Bowler": 5795,
      "Huawei": 5796,
      "März": 5797,
      "Prosecutor": 5798,
      "fundamental": 5799,
      "broadcaster": 5800,
      "opportunity": 5801,
      "Hoffnung": 5802,
      "Nähe": 5803,
      "Privat": 5804,
      "Phase": 5805,
      "Passengers": 5806,
      "Square": 5807,
      "fassungs": 5808,
      "natural": 5809,
      "beispielsweise": 5810,
      "Einschränkungen": 5811,
      "Seelsorge": 5812,
      "istleblower": 5813,
      "Bemühungen": 5814,
      "Bräun": 5815,
      "Drescher": 5816,
      "Kaffee": 5817,
      "Ludw": 5818,
      "Lancashire": 5819,
      "Mubarak": 5820,
      "Moham": 5821,
      "NYPD": 5822,
      "Nagold": 5823,
      "Plibersek": 5824,
      "Rhenus": 5825,
      "Santiago": 5826,
      "bollah": 5827,
      "flikt": 5828,
      "murder": 5829,
      "Özdemir": 5830,
      "environment": 5831,
      "stieg": 5832,
      "Sebelius": 5833,
      "Frelimo": 5834,
      "Baiersbronn": 5835,
      "Waltraud": 5836,
      ",'": 5837,
      "23": 5838,
      "39": 5839,
      "700": 5840,
      "Asyl": 5841,
      "Bot": 5842,
      "Bisch": 5843,
      "Basketball": 5844,
      "CE": 5845,
      "Col": 5846,
      "DC": 5847,
      "Del": 5848,
      "Dunn": 5849,
      "Druck": 5850,
      "Ess": 5851,
      "Every": 5852,
      "Eisen": 5853,
      "Fort": 5854,
      "Gle": 5855,
      "Gren": 5856,
      "Gue": 5857,
      "Grö": 5858,
      "GCS": 5859,
      "Ham": 5860,
      "Hig": 5861,
      "Hug": 5862,
      "Hinter": 5863,
      "Histor": 5864,
      "Ihnen": 5865,
      "Jör": 5866,
      "Kö": 5867,
      "Kun": 5868,
      "Kauf": 5869,
      "Kap": 5870,
      "Kön": 5871,
      "Kurs": 5872,
      "Kopf": 5873,
      "Lös": 5874,
      "Laden": 5875,
      "Mun": 5876,
      "Mand": 5877,
      "Mag": 5878,
      "Mik": 5879,
      "NR": 5880,
      "Nation": 5881,
      "Net": 5882,
      "Oder": 5883,
      "Over": 5884,
      "Ober": 5885,
      "Pra": 5886,
      "Penn": 5887,
      "Rh": 5888,
      "SD": 5889,
      "Sim": 5890,
      "Sex": 5891,
      "Stop": 5892,
      "Tun": 5893,
      "Tat": 5894,
      "Tex": 5895,
      "Ther": 5896,
      "Toch": 5897,
      "Up": 5898,
      "Vir": 5899,
      "Vater": 5900,
      "Wies": 5901,
      "Wagen": 5902,
      "Year": 5903,
      "Zwar": 5904,
      "Zust": 5905,
      "aß": 5906,
      "ahe": 5907,
      "abel": 5908,
      "bon": 5909,
      "bal": 5910,
      "bah": 5911,
      "bild": 5912,
      "bürger": 5913,
      "cin": 5914,
      "cise": 5915,
      "cash": 5916,
      "cited": 5917,
      "candid": 5918,
      "dict": 5919,
      "danger": 5920,
      "dächt": 5921,
      "eth": 5922,
      "eyes": 5923,
      "either": 5924,
      "fit": 5925,
      "fand": 5926,
      "fam": 5927,
      "fiel": 5928,
      "fied": 5929,
      "franz": 5930,
      "gone": 5931,
      "game": 5932,
      "günst": 5933,
      "hit": 5934,
      "ißen": 5935,
      "kr": 5936,
      "kul": 5937,
      "kord": 5938,
      "kaum": 5939,
      "kathol": 5940,
      "lle": 5941,
      "lives": 5942,
      "leng": 5943,
      "mis": 5944,
      "mom": 5945,
      "mahl": 5946,
      "mouth": 5947,
      "mix": 5948,
      "nar": 5949,
      "nungen": 5950,
      "oes": 5951,
      "ock": 5952,
      "oben": 5953,
      "pie": 5954,
      "pho": 5955,
      "push": 5956,
      "rische": 5957,
      "russ": 5958,
      "sal": 5959,
      "sher": 5960,
      "squ": 5961,
      "ssel": 5962,
      "sought": 5963,
      "tau": 5964,
      "ties": 5965,
      "task": 5966,
      "tables": 5967,
      "uclear": 5968,
      "vot": 5969,
      "vast": 5970,
      "vance": 5971,
      "wus": 5972,
      "winter": 5973,
      "wör": 5974,
      "wild": 5975,
      "wün": 5976,
      "wesen": 5977,
      "xim": 5978,
      "yp": 5979,
      "zü": 5980,
      "zes": 5981,
      "zit": 5982,
      "zieren": 5983,
      "Ägy": 5984,
      "äs": 5985,
      "äts": 5986,
      "–,": 5987,
      "ernen": 5988,
      "erreichen": 5989,
      "chair": 5990,
      "anzen": 5991,
      "este": 5992,
      "esten": 5993,
      "essed": 5994,
      "unit": 5995,
      "unmittel": 5996,
      "sty": 5997,
      "stür": 5998,
      "stated": 5999,
      "städ": 6000,
      "itten": 6001,
      "itts": 6002,
      "itzen": 6003,
      "itäts": 6004,
      "alone": 6005,
      "atik": 6006,
      "atory": 6007,
      "aries": 6008,
      "arrange": 6009,
      "israel": 6010,
      "asst": 6011,
      "associ": 6012,
      "reu": 6013,
      "reme": 6014,
      "reien": 6015,
      "rema": 6016,
      "derart": 6017,
      "teuer": 6018,
      "leitung": 6019,
      "league": 6020,
      "leuchten": 6021,
      "ichtet": 6022,
      "gets": 6023,
      "getragen": 6024,
      "gezeigt": 6025,
      "geändert": 6026,
      "einst": 6027,
      "einge": 6028,
      "einheit": 6029,
      "einahe": 6030,
      "depart": 6031,
      "device": 6032,
      "debt": 6033,
      "bege": 6034,
      "bevor": 6035,
      "becoming": 6036,
      "ilder": 6037,
      "ilty": 6038,
      "roh": 6039,
      "room": 6040,
      "sees": 6041,
      "sell": 6042,
      "seeing": 6043,
      "season": 6044,
      "search": 6045,
      "heart": 6046,
      "ams": 6047,
      "icious": 6048,
      "veranst": 6049,
      "tered": 6050,
      "irn": 6051,
      "entfern": 6052,
      "ommer": 6053,
      "iment": 6054,
      "imposed": 6055,
      "improve": 6056,
      "schte": 6057,
      "schle": 6058,
      "schön": 6059,
      "hrin": 6060,
      "weite": 6061,
      "forest": 6062,
      "formen": 6063,
      "forced": 6064,
      "raising": 6065,
      "acher": 6066,
      "achte": 6067,
      "achtet": 6068,
      "ierter": 6069,
      "netz": 6070,
      "ussel": 6071,
      "abo": 6072,
      "ckar": 6073,
      "advance": 6074,
      "idge": 6075,
      "etze": 6076,
      "umst": 6077,
      "umzu": 6078,
      "uments": 6079,
      "illen": 6080,
      "otten": 6081,
      "ichts": 6082,
      "Theologie": 6083,
      "spite": 6084,
      "spruch": 6085,
      "opin": 6086,
      "oppel": 6087,
      "probe": 6088,
      "progress": 6089,
      "plom": 6090,
      "annel": 6091,
      "convers": 6092,
      "content": 6093,
      "Statt": 6094,
      "keits": 6095,
      "zeigten": 6096,
      "permitted": 6097,
      "Inc": 6098,
      "Intelligence": 6099,
      "comed": 6100,
      "sender": 6101,
      "losen": 6102,
      "loaded": 6103,
      "Andere": 6104,
      "Ankündig": 6105,
      "Anklage": 6106,
      "meist": 6107,
      "Schö": 6108,
      "Schle": 6109,
      "Schule": 6110,
      "manager": 6111,
      "except": 6112,
      "gert": 6113,
      "rupt": 6114,
      "ruled": 6115,
      "ruption": 6116,
      "eller": 6117,
      "tagen": 6118,
      "takes": 6119,
      "Versuch": 6120,
      "Verwalt": 6121,
      "Vergangen": 6122,
      "Verdächt": 6123,
      "indest": 6124,
      "herself": 6125,
      "hersteller": 6126,
      "gesamte": 6127,
      "sogar": 6128,
      "fehl": 6129,
      "lak": 6130,
      "überprü": 6131,
      "Republic": 6132,
      "Reaktion": 6133,
      "Rekord": 6134,
      "essent": 6135,
      "essern": 6136,
      "poten": 6137,
      "ateg": 6138,
      "steps": 6139,
      "Unabhängigkeit": 6140,
      "Because": 6141,
      "voraus": 6142,
      "vorgenommen": 6143,
      "nachhalt": 6144,
      "nachmittag": 6145,
      "share": 6146,
      "shown": 6147,
      "showing": 6148,
      "ganzen": 6149,
      "acity": 6150,
      "accept": 6151,
      "Gepäck": 6152,
      "quir": 6153,
      "quick": 6154,
      "quite": 6155,
      "lief": 6156,
      "erns": 6157,
      "Prote": 6158,
      "asts": 6159,
      "door": 6160,
      "ifel": 6161,
      "iful": 6162,
      "Jahrzehn": 6163,
      "angeht": 6164,
      "angeklagt": 6165,
      "interference": 6166,
      "Wegen": 6167,
      "Weiter": 6168,
      "örder": 6169,
      "clim": 6170,
      "oks": 6171,
      "okrat": 6172,
      "Neckar": 6173,
      "minor": 6174,
      "klärt": 6175,
      "kennen": 6176,
      "Alle": 6177,
      "getting": 6178,
      "durchgeführt": 6179,
      "sym": 6180,
      "Chief": 6181,
      "Choral": 6182,
      "Choir": 6183,
      "Defen": 6184,
      "zumindest": 6185,
      "zweimal": 6186,
      "cars": 6187,
      "ongress": 6188,
      "vide": 6189,
      "Auswahl": 6190,
      "hohe": 6191,
      "teles": 6192,
      "gewiesen": 6193,
      "gewonnen": 6194,
      "regional": 6195,
      "gebung": 6196,
      "gebühren": 6197,
      "thanks": 6198,
      "2000": 6199,
      "paid": 6200,
      "type": 6201,
      "delighted": 6202,
      "Regul": 6203,
      "status": 6204,
      "parent": 6205,
      "build": 6206,
      "buza": 6207,
      "frequ": 6208,
      "pfung": 6209,
      "cycl": 6210,
      "möglichen": 6211,
      "Abschluss": 6212,
      "älen": 6213,
      "Geschichten": 6214,
      "Both": 6215,
      "baren": 6216,
      "pension": 6217,
      "missiles": 6218,
      "gestiegen": 6219,
      "setzten": 6220,
      "setzungen": 6221,
      "Exchange": 6222,
      "1970": 6223,
      "ologische": 6224,
      "Rocker": 6225,
      "burn": 6226,
      "burgh": 6227,
      "contribut": 6228,
      "Airport": 6229,
      "greifen": 6230,
      "Überprü": 6231,
      "struct": 6232,
      "strukt": 6233,
      "musik": 6234,
      "possibil": 6235,
      "Common": 6236,
      "handle": 6237,
      "actual": 6238,
      "guten": 6239,
      "guilty": 6240,
      "pleas": 6241,
      "sexuellen": 6242,
      "published": 6243,
      "höher": 6244,
      "starb": 6245,
      "Konstanz": 6246,
      "autiful": 6247,
      "Schuld": 6248,
      "Paris": 6249,
      "Amerikaner": 6250,
      "bereich": 6251,
      "Besitz": 6252,
      "playing": 6253,
      "turning": 6254,
      "ziele": 6255,
      "ziell": 6256,
      "courage": 6257,
      "solche": 6258,
      "chnung": 6259,
      "CASA": 6260,
      "justice": 6261,
      "experts": 6262,
      "drive": 6263,
      "ängst": 6264,
      "Haushalts": 6265,
      "Moz": 6266,
      "North": 6267,
      "möglicherweise": 6268,
      "verband": 6269,
      "relation": 6270,
      "showed": 6271,
      "electric": 6272,
      "mainly": 6273,
      "Brussel": 6274,
      "britische": 6275,
      "subsequ": 6276,
      "kündigt": 6277,
      "positive": 6278,
      "Passagier": 6279,
      "Passagieren": 6280,
      "effort": 6281,
      "twice": 6282,
      "truth": 6283,
      "initial": 6284,
      "stuck": 6285,
      "beschlossen": 6286,
      "ministers": 6287,
      "druck": 6288,
      "technischen": 6289,
      "profession": 6290,
      "fanden": 6291,
      "fangen": 6292,
      "fantast": 6293,
      "pastoral": 6294,
      "Hochwasser": 6295,
      "Preis": 6296,
      "frist": 6297,
      "frisk": 6298,
      "Gebühr": 6299,
      "Agentur": 6300,
      "Kleve": 6301,
      "brachte": 6302,
      "euro": 6303,
      "hofft": 6304,
      "ampion": 6305,
      "forderung": 6306,
      "addiction": 6307,
      "management": 6308,
      "approved": 6309,
      "Syrian": 6310,
      "eigent": 6311,
      "Verbün": 6312,
      "Verbindung": 6313,
      "aware": 6314,
      "milk": 6315,
      "brauchen": 6316,
      "bestehen": 6317,
      "Grundstück": 6318,
      "Geschäft": 6319,
      "aktuellen": 6320,
      "families": 6321,
      "Malay": 6322,
      "legenheit": 6323,
      "schuld": 6324,
      "Behörde": 6325,
      "population": 6326,
      "bringing": 6327,
      "läss": 6328,
      "signific": 6329,
      "vania": 6330,
      "vention": 6331,
      "büne": 6332,
      "calls": 6333,
      "ölf": 6334,
      "opening": 6335,
      "Treffen": 6336,
      "claimed": 6337,
      "drawn": 6338,
      "linger": 6339,
      "tournament": 6340,
      "properties": 6341,
      "elektronische": 6342,
      "Kredit": 6343,
      "Super": 6344,
      "horn": 6345,
      "wahrscheinlich": 6346,
      "Liber": 6347,
      "Life": 6348,
      "Traum": 6349,
      "regulator": 6350,
      "regulators": 6351,
      "Bundesstaat": 6352,
      "Punkt": 6353,
      "cases": 6354,
      "journey": 6355,
      "psychiat": 6356,
      "udenten": 6357,
      "entertain": 6358,
      "consist": 6359,
      "Neuen": 6360,
      "Charlie": 6361,
      "Pfarreien": 6362,
      "Russian": 6363,
      "fuhr": 6364,
      "sofort": 6365,
      "levels": 6366,
      "verwenden": 6367,
      "schreibt": 6368,
      "Brüssel": 6369,
      "Turner": 6370,
      "killed": 6371,
      "erleb": 6372,
      "schieden": 6373,
      "speaking": 6374,
      "Kuchen": 6375,
      "Lieder": 6376,
      "Radio": 6377,
      "reagiert": 6378,
      "Darüber": 6379,
      "Handels": 6380,
      "Milch": 6381,
      "Public": 6382,
      "stärker": 6383,
      "returned": 6384,
      "weisung": 6385,
      "option": 6386,
      "options": 6387,
      "Folge": 6388,
      "Fernseh": 6389,
      "television": 6390,
      "sentence": 6391,
      "wirtschaftlichen": 6392,
      "controver": 6393,
      "präsentiert": 6394,
      "daughter": 6395,
      "equipment": 6396,
      "equipped": 6397,
      "Kurz": 6398,
      "Titel": 6399,
      "friendly": 6400,
      "definit": 6401,
      "boxes": 6402,
      "unterstützen": 6403,
      "sylvania": 6404,
      "increasingly": 6405,
      "Autofahrer": 6406,
      "Autofahrern": 6407,
      "ehemalige": 6408,
      "offiziell": 6409,
      "Holz": 6410,
      "Janu": 6411,
      "Meinung": 6412,
      "Sprich": 6413,
      "dürfen": 6414,
      "division": 6415,
      "ruling": 6416,
      "alternative": 6417,
      "implement": 6418,
      "Fehler": 6419,
      "männlichen": 6420,
      "Bruce": 6421,
      "Highway": 6422,
      "Hunderte": 6423,
      "Stock": 6424,
      "destro": 6425,
      "erhöht": 6426,
      "Geburt": 6427,
      "Scottish": 6428,
      "Kilometer": 6429,
      "Salzburg": 6430,
      "Aktie": 6431,
      "Restauran": 6432,
      "Supreme": 6433,
      "Töchter": 6434,
      "Winkler": 6435,
      "Zwischen": 6436,
      "regelmäßig": 6437,
      "spotted": 6438,
      "procedure": 6439,
      "victims": 6440,
      "occasion": 6441,
      "appropriate": 6442,
      "Hinblick": 6443,
      "Jubiläums": 6444,
      "Risiko": 6445,
      "Wissenschaftler": 6446,
      "average": 6447,
      "blieb": 6448,
      "millions": 6449,
      "package": 6450,
      "revelations": 6451,
      "meaning": 6452,
      "cientists": 6453,
      "surprise": 6454,
      "stitutional": 6455,
      "Staatsanwaltschaft": 6456,
      "Capital": 6457,
      "Diskuss": 6458,
      "repeated": 6459,
      "schützen": 6460,
      "advantage": 6461,
      "Schauspiel": 6462,
      "sustainable": 6463,
      "apartment": 6464,
      "Erfahrung": 6465,
      "corporate": 6466,
      "scandal": 6467,
      "wonderful": 6468,
      "Publikum": 6469,
      "Benni": 6470,
      "Grünen": 6471,
      "Pfullendorf": 6472,
      "Angst": 6473,
      "travelling": 6474,
      "gelöst": 6475,
      "Bedingungen": 6476,
      "Guebuza": 6477,
      "Pennsylvania": 6478,
      "Tochter": 6479,
      "französ": 6480,
      "length": 6481,
      "Ägyp": 6482,
      "Ankündigung": 6483,
      "Vergangenheit": 6484,
      "Brussels": 6485,
      "'.": 6486,
      "-,": 6487,
      "38": 6488,
      "350": 6489,
      "47": 6490,
      "66": 6491,
      "83": 6492,
      "AS": 6493,
      "Are": 6494,
      "ABC": 6495,
      "Atom": 6496,
      "Bi": 6497,
      "By": 6498,
      "Bom": 6499,
      "Block": 6500,
      "B12": 6501,
      "Bias": 6502,
      "Banken": 6503,
      "Birm": 6504,
      "CO": 6505,
      "Cr": 6506,
      "Cit": 6507,
      "Clau": 6508,
      "Coun": 6509,
      "Dh": 6510,
      "Du": 6511,
      "Dun": 6512,
      "Daf": 6513,
      "Dub": 6514,
      "Dorf": 6515,
      "Daher": 6516,
      "Dinker": 6517,
      "Eing": 6518,
      "Esa": 6519,
      "ESA": 6520,
      "Fi": 6521,
      "Fal": 6522,
      "Fle": 6523,
      "Fisch": 6524,
      "From": 6525,
      "Fire": 6526,
      "Face": 6527,
      "Führung": 6528,
      "Flyn": 6529,
      "Förder": 6530,
      "Gr": 6531,
      "Gra": 6532,
      "Games": 6533,
      "Gramm": 6534,
      "Har": 6535,
      "Holl": 6536,
      "Hunden": 6537,
      "Hünd": 6538,
      "Iran": 6539,
      "Jer": 6540,
      "Jim": 6541,
      "Jet": 6542,
      "Jup": 6543,
      "Jenn": 6544,
      "James": 6545,
      "Kr": 6546,
      "Kin": 6547,
      "Krie": 6548,
      "Kana": 6549,
      "Kollegen": 6550,
      "LA": 6551,
      "LG": 6552,
      "La": 6553,
      "Lt": 6554,
      "Lam": 6555,
      "Lig": 6556,
      "Lauf": 6557,
      "Länder": 6558,
      "Law": 6559,
      "Labor": 6560,
      "Löffingen": 6561,
      "Mc": 6562,
      "Mau": 6563,
      "Meine": 6564,
      "Mul": 6565,
      "Mary": 6566,
      "Male": 6567,
      "Matt": 6568,
      "Money": 6569,
      "Nie": 6570,
      "Nic": 6571,
      "Nah": 6572,
      "Osten": 6573,
      "Opt": 6574,
      "Po": 6575,
      "Pam": 6576,
      "Panger": 6577,
      "Paul": 6578,
      "Pilot": 6579,
      "Ra": 6580,
      "Red": 6581,
      "Roll": 6582,
      "Rain": 6583,
      "Rib": 6584,
      "Rover": 6585,
      "SG": 6586,
      "Sa": 6587,
      "Sar": 6588,
      "Sier": 6589,
      "Sum": 6590,
      "Seine": 6591,
      "Sul": 6592,
      "Sher": 6593,
      "Stell": 6594,
      "Sohn": 6595,
      "Show": 6596,
      "Southern": 6597,
      "Tues": 6598,
      "Tijuana": 6599,
      "UBS": 6600,
      "Vall": 6601,
      "Vide": 6602,
      "Vale": 6603,
      "Wi": 6604,
      "Wun": 6605,
      "Whe": 6606,
      "Wür": 6607,
      "Wort": 6608,
      "Waffen": 6609,
      "Währung": 6610,
      "Ye": 6611,
      "Zo": 6612,
      "Zur": 6613,
      "Zum": 6614,
      "Ziele": 6615,
      "aim": 6616,
      "blo": 6617,
      "bour": 6618,
      "blau": 6619,
      "base": 6620,
      "beinahe": 6621,
      "cat": 6622,
      "cra": 6623,
      "cies": 6624,
      "ciety": 6625,
      "cope": 6626,
      "dan": 6627,
      "dah": 6628,
      "done": 6629,
      "daten": 6630,
      "eper": 6631,
      "fru": 6632,
      "fine": 6633,
      "fight": 6634,
      "gger": 6635,
      "gän": 6636,
      "gment": 6637,
      "gliche": 6638,
      "gations": 6639,
      "hall": 6640,
      "hot": 6641,
      "higkeit": 6642,
      "jet": 6643,
      "ko": 6644,
      "kä": 6645,
      "kie": 6646,
      "kill": 6647,
      "kran": 6648,
      "körper": 6649,
      "kranz": 6650,
      "lt": 6651,
      "lion": 6652,
      "lern": 6653,
      "lungs": 6654,
      "langen": 6655,
      "mm": 6656,
      "mu": 6657,
      "mem": 6658,
      "mier": 6659,
      "mad": 6660,
      "mess": 6661,
      "mischen": 6662,
      "meinen": 6663,
      "nation": 6664,
      "nannte": 6665,
      "ois": 6666,
      "oia": 6667,
      "oath": 6668,
      "piel": 6669,
      "pain": 6670,
      "pub": 6671,
      "pite": 6672,
      "pump": 6673,
      "rung": 6674,
      "rischen": 6675,
      "rät": 6676,
      "rising": 6677,
      "rights": 6678,
      "sü": 6679,
      "sli": 6680,
      "skept": 6681,
      "tin": 6682,
      "tte": 6683,
      "tier": 6684,
      "tip": 6685,
      "tong": 6686,
      "tasman": 6687,
      "uern": 6688,
      "ufact": 6689,
      "vy": 6690,
      "vö": 6691,
      "völker": 6692,
      "ware": 6693,
      "widen": 6694,
      "wander": 6695,
      "yan": 6696,
      "yed": 6697,
      "zi": 6698,
      "zing": 6699,
      "zwar": 6700,
      "zbach": 6701,
      "zielle": 6702,
      "zhou": 6703,
      "ßt": 6704,
      "äger": 6705,
      "ügen": 6706,
      "üten": 6707,
      "ering": 6708,
      "erhe": 6709,
      "erung": 6710,
      "erfre": 6711,
      "erforder": 6712,
      "ersetzen": 6713,
      "erhiel": 6714,
      "erziel": 6715,
      "enor": 6716,
      "ences": 6717,
      "inau": 6718,
      "instead": 6719,
      "integr": 6720,
      "inburgh": 6721,
      "chan": 6722,
      "chner": 6723,
      "chance": 6724,
      "thmund": 6725,
      "anony": 6726,
      "analy": 6727,
      "anoia": 6728,
      "ested": 6729,
      "espe": 6730,
      "ongoing": 6731,
      "unte": 6732,
      "unabhäng": 6733,
      "sts": 6734,
      "stof": 6735,
      "stol": 6736,
      "ites": 6737,
      "itter": 6738,
      "itim": 6739,
      "itions": 6740,
      "itors": 6741,
      "aling": 6742,
      "ativen": 6743,
      "aring": 6744,
      "arian": 6745,
      "argu": 6746,
      "isa": 6747,
      "isl": 6748,
      "isis": 6749,
      "ases": 6750,
      "aschen": 6751,
      "rein": 6752,
      "reast": 6753,
      "reise": 6754,
      "react": 6755,
      "replace": 6756,
      "rechte": 6757,
      "removed": 6758,
      "derats": 6759,
      "teach": 6760,
      "leb": 6761,
      "leisten": 6762,
      "gewohn": 6763,
      "audo": 6764,
      "deb": 6765,
      "decken": 6766,
      "department": 6767,
      "details": 6768,
      "determined": 6769,
      "ingham": 6770,
      "ingbah": 6771,
      "beob": 6772,
      "bewegen": 6773,
      "bezahl": 6774,
      "bedro": 6775,
      "betrie": 6776,
      "beautiful": 6777,
      "toll": 6778,
      "tomor": 6779,
      "urer": 6780,
      "denkt": 6781,
      "rob": 6782,
      "route": 6783,
      "secre": 6784,
      "section": 6785,
      "heav": 6786,
      "amme": 6787,
      "ambi": 6788,
      "ickt": 6789,
      "ician": 6790,
      "genug": 6791,
      "verm": 6792,
      "verden": 6793,
      "vertr": 6794,
      "versuch": 6795,
      "verstehen": 6796,
      "verhält": 6797,
      "verboten": 6798,
      "versicherung": 6799,
      "verfassungs": 6800,
      "ela": 6801,
      "elf": 6802,
      "elte": 6803,
      "entweder": 6804,
      "entschieden": 6805,
      "omlion": 6806,
      "unglau": 6807,
      "schauen": 6808,
      "schätz": 6809,
      "igration": 6810,
      "weak": 6811,
      "weather": 6812,
      "raise": 6813,
      "eme": 6814,
      "empt": 6815,
      "email": 6816,
      "achim": 6817,
      "abreast": 6818,
      "cky": 6819,
      "ading": 6820,
      "allies": 6821,
      "lichkeiten": 6822,
      "umpp": 6823,
      "ills": 6824,
      "mitglie": 6825,
      "mitarbeiter": 6826,
      "aufen": 6827,
      "aufgrund": 6828,
      "spir": 6829,
      "spent": 6830,
      "whate": 6831,
      "white": 6832,
      "aussagen": 6833,
      "ausgesetzt": 6834,
      "ausschuss": 6835,
      "proved": 6836,
      "projekt": 6837,
      "plat": 6838,
      "plus": 6839,
      "annt": 6840,
      "conce": 6841,
      "conclus": 6842,
      "Stat": 6843,
      "Studenten": 6844,
      "demand": 6845,
      "mend": 6846,
      "mented": 6847,
      "zeige": 6848,
      "reser": 6849,
      "resol": 6850,
      "Init": 6851,
      "commit": 6852,
      "commer": 6853,
      "combin": 6854,
      "comfort": 6855,
      "comedy": 6856,
      "sah": 6857,
      "sensor": 6858,
      "rial": 6859,
      "rigen": 6860,
      "Anne": 6861,
      "Anhör": 6862,
      "Anzahl": 6863,
      "Anna": 6864,
      "Anderson": 6865,
      "Schn": 6866,
      "Schlich": 6867,
      "Schubert": 6868,
      "Schmid": 6869,
      "Schritt": 6870,
      "Schilt": 6871,
      "manchmal": 6872,
      "manufact": 6873,
      "extern": 6874,
      "exhau": 6875,
      "exclus": 6876,
      "existing": 6877,
      "bene": 6878,
      "gerne": 6879,
      "geräte": 6880,
      "gerufen": 6881,
      "ruf": 6882,
      "rufen": 6883,
      "Verletz": 6884,
      "Verantwort": 6885,
      "Verhandlung": 6886,
      "gesucht": 6887,
      "society": 6888,
      "ikörper": 6889,
      "willing": 6890,
      "pover": 6891,
      "pool": 6892,
      "traf": 6893,
      "trader": 6894,
      "traders": 6895,
      "llig": 6896,
      "ortigar": 6897,
      "sial": 6898,
      "rang": 6899,
      "wirken": 6900,
      "worth": 6901,
      "words": 6902,
      "step": 6903,
      "stehung": 6904,
      "Becker": 6905,
      "Bevölker": 6906,
      "Beaudo": 6907,
      "accur": 6908,
      "modern": 6909,
      "upon": 6910,
      "quo": 6911,
      "Erst": 6912,
      "Erich": 6913,
      "antib": 6914,
      "wiegen": 6915,
      "lied": 6916,
      "lieben": 6917,
      "lieger": 6918,
      "dingen": 6919,
      "Protest": 6920,
      "hner": 6921,
      "brich": 6922,
      "brings": 6923,
      "brief": 6924,
      "lift": 6925,
      "rene": 6926,
      "serving": 6927,
      "ifiz": 6928,
      "Gespräche": 6929,
      "füllen": 6930,
      "sition": 6931,
      "tried": 6932,
      "Wege": 6933,
      "Weißen": 6934,
      "boys": 6935,
      "unterwegs": 6936,
      "Einkommen": 6937,
      "clash": 6938,
      "clays": 6939,
      "Lee": 6940,
      "Lehr": 6941,
      "Leip": 6942,
      "Neue": 6943,
      "oghur": 6944,
      "bleibt": 6945,
      "besorgt": 6946,
      "Spark": 6947,
      "Spaß": 6948,
      "landing": 6949,
      "crew": 6950,
      "komment": 6951,
      "ährungs": 6952,
      "assaul": 6953,
      "Flor": 6954,
      "ousands": 6955,
      "Vorstand": 6956,
      "Vorschläge": 6957,
      "Alb": 6958,
      "ferdingen": 6959,
      "anders": 6960,
      "aking": 6961,
      "Church": 6962,
      "Mitt": 6963,
      "Mitte": 6964,
      "Mitarbeit": 6965,
      "overall": 6966,
      "Hey": 6967,
      "Heim": 6968,
      "Health": 6969,
      "allegations": 6970,
      "Arme": 6971,
      "fax": 6972,
      "failed": 6973,
      "firm": 6974,
      "itete": 6975,
      "zweif": 6976,
      "nothing": 6977,
      "century": 6978,
      "flu": 6979,
      "ppel": 6980,
      "viation": 6981,
      "diplom": 6982,
      "konzept": 6983,
      "konferenz": 6984,
      "Aussagen": 6985,
      "Ausliefer": 6986,
      "geln": 6987,
      "Flugsteig": 6988,
      "uchte": 6989,
      "gewinn": 6990,
      "gewusst": 6991,
      "gewachsen": 6992,
      "regard": 6993,
      "führenden": 6994,
      "äußer": 6995,
      "2002": 6996,
      "2004": 6997,
      "prevent": 6998,
      "elled": 6999,
      "Sieg": 7000,
      "üssel": 7001,
      "insurance": 7002,
      "understand": 7003,
      "Region": 7004,
      "Freund": 7005,
      "ianischen": 7006,
      "invited": 7007,
      "mehreren": 7008,
      "weiteres": 7009,
      "darf": 7010,
      "darin": 7011,
      "buka": 7012,
      "freunde": 7013,
      "Amirth": 7014,
      "youth": 7015,
      "airport": 7016,
      "Berater": 7017,
      "brechts": 7018,
      "barer": 7019,
      "penal": 7020,
      "Hersteller": 7021,
      "blue": 7022,
      "vised": 7023,
      "ologist": 7024,
      "counts": 7025,
      "Rothmund": 7026,
      "geschwind": 7027,
      "geschäft": 7028,
      "crisis": 7029,
      "folgt": 7030,
      "Entstehung": 7031,
      "posing": 7032,
      "Commun": 7033,
      "Committee": 7034,
      "reading": 7035,
      "Umsetzung": 7036,
      "wenden": 7037,
      "Frisk": 7038,
      "active": 7039,
      "guar": 7040,
      "gemäß": 7041,
      "Schulhof": 7042,
      "Parlament": 7043,
      "fragte": 7044,
      "früh": 7045,
      "knowledge": 7046,
      "solution": 7047,
      "Interessen": 7048,
      "Interesse": 7049,
      "avig": 7050,
      "topic": 7051,
      "smug": 7052,
      "sicherheit": 7053,
      "Kirche": 7054,
      "amerikanischer": 7055,
      "vielleicht": 7056,
      "zahlreiche": 7057,
      "Straf": 7058,
      "views": 7059,
      "glück": 7060,
      "haul": 7061,
      "restrict": 7062,
      "organised": 7063,
      "organization": 7064,
      "Dieser": 7065,
      "Most": 7066,
      "Pascal": 7067,
      "everyone": 7068,
      "vegans": 7069,
      "temberg": 7070,
      "verbessern": 7071,
      "included": 7072,
      "related": 7073,
      "relativ": 7074,
      "Handys": 7075,
      "Mane": 7076,
      "Medic": 7077,
      "Baratz": 7078,
      "Barclays": 7079,
      "Yorker": 7080,
      "Chris": 7081,
      "holt": 7082,
      "continues": 7083,
      "Brun": 7084,
      "passenger": 7085,
      "investigate": 7086,
      "investigated": 7087,
      "explains": 7088,
      "Bauhaus": 7089,
      "Kommun": 7090,
      "scene": 7091,
      "street": 7092,
      "gelegen": 7093,
      "below": 7094,
      "tware": 7095,
      "beschäft": 7096,
      "arbeitung": 7097,
      "Daverden": 7098,
      "summer": 7099,
      "schließend": 7100,
      "Klasse": 7101,
      "Klumpp": 7102,
      "Tradition": 7103,
      "Trainer": 7104,
      "unserer": 7105,
      "unseren": 7106,
      "technology": 7107,
      "verlassen": 7108,
      "Todes": 7109,
      "Why": 7110,
      "numerous": 7111,
      "wichtiger": 7112,
      "ausgegeben": 7113,
      "Autos": 7114,
      "Teams": 7115,
      "Premier": 7116,
      "banks": 7117,
      "simple": 7118,
      "measuring": 7119,
      "completed": 7120,
      "Betra": 7121,
      "Coach": 7122,
      "Miller": 7123,
      "brain": 7124,
      "brachten": 7125,
      "didn": 7126,
      "hoffe": 7127,
      "skirche": 7128,
      "believed": 7129,
      "Christmas": 7130,
      "Tribuka": 7131,
      "Werk": 7132,
      "trip": 7133,
      "addressed": 7134,
      "celebrations": 7135,
      "celebrating": 7136,
      "offences": 7137,
      "punkte": 7138,
      "singer": 7139,
      "safely": 7140,
      "abilität": 7141,
      "Edinburgh": 7142,
      "Süß": 7143,
      "Südaf": 7144,
      "drew": 7145,
      "projects": 7146,
      "Carol": 7147,
      "Carmen": 7148,
      "Caringbah": 7149,
      "bietet": 7150,
      "talk": 7151,
      "taxes": 7152,
      "trained": 7153,
      "Kirchengemein": 7154,
      "programs": 7155,
      "Haas": 7156,
      "schweren": 7157,
      "Standort": 7158,
      "Zusammenhang": 7159,
      "Demokrat": 7160,
      "Spezial": 7161,
      "suspen": 7162,
      "warzwald": 7163,
      "Geschlechts": 7164,
      "voller": 7165,
      "bringt": 7166,
      "träge": 7167,
      "trächt": 7168,
      "Gerichts": 7169,
      "Morgen": 7170,
      "rump": 7171,
      "verletzung": 7172,
      "Ermittlung": 7173,
      "clubs": 7174,
      "wachsende": 7175,
      "Musikverein": 7176,
      "Doerk": 7177,
      "Wales": 7178,
      "Walter": 7179,
      "individuals": 7180,
      "Fluggesellschaft": 7181,
      "Experte": 7182,
      "funding": 7183,
      "jailed": 7184,
      "ships": 7185,
      "Suisse": 7186,
      "Salem": 7187,
      "Ulbrich": 7188,
      "hormon": 7189,
      "limited": 7190,
      "volunte": 7191,
      "warned": 7192,
      "shortly": 7193,
      "Blackburn": 7194,
      "closely": 7195,
      "middle": 7196,
      "ometres": 7197,
      "Schwarzwald": 7198,
      "offering": 7199,
      "hlenbach": 7200,
      "criminals": 7201,
      "researchers": 7202,
      "Evening": 7203,
      "Worten": 7204,
      "namens": 7205,
      "veröffentlichte": 7206,
      "Antikörper": 7207,
      "Charles": 7208,
      "beginning": 7209,
      "Steinbruch": 7210,
      "Krankenversicherung": 7211,
      "Dennoch": 7212,
      "July": 7213,
      "NotW": 7214,
      "Sache": 7215,
      "Touristen": 7216,
      "Tourismus": 7217,
      "blocked": 7218,
      "sides": 7219,
      "reporting": 7220,
      "schreib": 7221,
      "hrenbeck": 7222,
      "großart": 7223,
      "competing": 7224,
      "competition": 7225,
      "discussions": 7226,
      "Assad": 7227,
      "kilometres": 7228,
      "smoking": 7229,
      "records": 7230,
      "designed": 7231,
      "Angeklag": 7232,
      "erläutert": 7233,
      "Howie": 7234,
      "Keith": 7235,
      "Rettungs": 7236,
      "winning": 7237,
      "leading": 7238,
      "general": 7239,
      "schedule": 7240,
      "spokesman": 7241,
      "proposal": 7242,
      "consumer": 7243,
      "quality": 7244,
      "bestätigte": 7245,
      "Alexander": 7246,
      "Domäne": 7247,
      "True": 7248,
      "laufen": 7249,
      "administrative": 7250,
      "Investition": 7251,
      "Abendmahl": 7252,
      "Genitalien": 7253,
      "Joachim": 7254,
      "hundred": 7255,
      "panel": 7256,
      "purpose": 7257,
      "schrift": 7258,
      "wechseln": 7259,
      "sparte": 7260,
      "placed": 7261,
      "launch": 7262,
      "Felix": 7263,
      "Vogel": 7264,
      "Wilkie": 7265,
      "meint": 7266,
      "independence": 7267,
      "stätten": 7268,
      "gehend": 7269,
      "splatz": 7270,
      "spending": 7271,
      "Veränderungen": 7272,
      "Abgeordnete": 7273,
      "Abgeordneten": 7274,
      "1992": 7275,
      "1997": 7276,
      "Pfandhäuser": 7277,
      "offiziellen": 7278,
      "Früh": 7279,
      "Hacking": 7280,
      "Safira": 7281,
      "Volk": 7282,
      "Zweifel": 7283,
      "egg": 7284,
      "funktion": 7285,
      "hearing": 7286,
      "implemented": 7287,
      "commissioned": 7288,
      "Alternative": 7289,
      "Alternativen": 7290,
      "kontroll": 7291,
      "Terminal": 7292,
      "Autor": 7293,
      "Hydro": 7294,
      "Ärzte": 7295,
      "erlaubt": 7296,
      "incident": 7297,
      "referred": 7298,
      "gefahrenen": 7299,
      "defence": 7300,
      "beeinfl": 7301,
      "contact": 7302,
      "losses": 7303,
      "Regelungen": 7304,
      "Bewegung": 7305,
      "gewählt": 7306,
      "Andrew": 7307,
      "practice": 7308,
      "Philipp": 7309,
      "Dienst": 7310,
      "width": 7311,
      "australische": 7312,
      "English": 7313,
      "Freilicht": 7314,
      "Pflege": 7315,
      "Lebensmittel": 7316,
      "employee": 7317,
      "Education": 7318,
      "Mühlenbach": 7319,
      "Ralf": 7320,
      "Wachstum": 7321,
      "circ": 7322,
      "doubt": 7323,
      "message": 7324,
      "wählen": 7325,
      "erkannt": 7326,
      "erwähnt": 7327,
      "geplanten": 7328,
      "genuine": 7329,
      "ultimately": 7330,
      "conduct": 7331,
      "Vertreter": 7332,
      "Reuters": 7333,
      "Gehirn": 7334,
      "Chancen": 7335,
      "restaurant": 7336,
      "Kommentar": 7337,
      "Mexico": 7338,
      "satisfied": 7339,
      "Business": 7340,
      "Credit": 7341,
      "HTC": 7342,
      "Röhrenbeck": 7343,
      "Vollmar": 7344,
      "battle": 7345,
      "jüngsten": 7346,
      "pitch": 7347,
      "purchase": 7348,
      "neighbour": 7349,
      "negoti": 7350,
      "Stimmung": 7351,
      "Verbrechen": 7352,
      "Beziehungen": 7353,
      "violence": 7354,
      "prepared": 7355,
      "Impfstoff": 7356,
      "blonde": 7357,
      "military": 7358,
      "einzelnen": 7359,
      "Kammerer": 7360,
      "supplies": 7361,
      "Blair": 7362,
      "Bronner": 7363,
      "Bashar": 7364,
      "Cosmic": 7365,
      "Double": 7366,
      "GPS": 7367,
      "Kamerun": 7368,
      "Kaltenhof": 7369,
      "Materie": 7370,
      "Szenen": 7371,
      "VfB": 7372,
      "fighters": 7373,
      "habit": 7374,
      "estimated": 7375,
      "Schrell": 7376,
      "Aufführung": 7377,
      "polizeil": 7378,
      "medizinische": 7379,
      "Hochschwarzwald": 7380,
      "pedestrian": 7381,
      "Helmbrechts": 7382,
      "extremely": 7383,
      "Silverado": 7384,
      "Seelsorgeeinheit": 7385,
      "Bräunlingen": 7386,
      "Mohammed": 7387,
      "Eisenbahn": 7388,
      "Highl": 7389,
      "Jörg": 7390,
      "Lösung": 7391,
      "Mikwe": 7392,
      "Sexual": 7393,
      "Tunks": 7394,
      "Wiese": 7395,
      "bildung": 7396,
      "famous": 7397,
      "katholischen": 7398,
      "wörter": 7399,
      "entfernt": 7400,
      "above": 7401,
      "Verwaltung": 7402,
      "lakama": 7403,
      "quickly": 7404,
      "Regulierungs": 7405,
      "Commonwealth": 7406,
      "fantastic": 7407,
      "Malaysia": 7408,
      "lässlich": 7409,
      "Liederkranz": 7410,
      "controversial": 7411,
      "Sprichwörter": 7412,
      "Ägypten": 7413,
      "Birmingham": 7414,
      "Dhlakama": 7415,
      "Dubai": 7416,
      "Facebook": 7417,
      "Flynn": 7418,
      "Jupiter": 7419,
      "Kindes": 7420,
      "Ltd": 7421,
      "Pangerl": 7422,
      "Raketen": 7423,
      "Rainer": 7424,
      "Ribbert": 7425,
      "Sierra": 7426,
      "Sulzbach": 7427,
      "Tuesday": 7428,
      "Vallortigar": 7429,
      "Yeah": 7430,
      "Zoomlion": 7431,
      "tongue": 7432,
      "inaug": 7433,
      "especially": 7434,
      "stoffe": 7435,
      "alinga": 7436,
      "tomorrow": 7437,
      "ambique": 7438,
      "unglaublich": 7439,
      "whatever": 7440,
      "commercial": 7441,
      "Anhörung": 7442,
      "Schmidt": 7443,
      "Schiltach": 7444,
      "Bevölkerung": 7445,
      "Beaudoin": 7446,
      "Leipferdingen": 7447,
      "oghurt": 7448,
      "Sparkasse": 7449,
      "Amirthalinga": 7450,
      "restrictions": 7451,
      "Tribukait": 7452,
      "Doerksen": 7453,
      "Sulzbachweg": 7454,
      "Vallortigara": 7455,
      "400": 7456,
      "75": 7457,
      "AC": 7458,
      "Ag": 7459,
      "Ach": 7460,
      "App": 7461,
      "Atem": 7462,
      "Affäre": 7463,
      "Aviation": 7464,
      "Bu": 7465,
      "Bor": 7466,
      "Ball": 7467,
      "Bran": 7468,
      "Back": 7469,
      "Benz": 7470,
      "Bitte": 7471,
      "Baby": 7472,
      "Ca": 7473,
      "Cy": 7474,
      "Cir": 7475,
      "Colle": 7476,
      "Crown": 7477,
      "CDC": 7478,
      "Di": 7479,
      "Day": 7480,
      "Det": 7481,
      "Dok": 7482,
      "Dev": 7483,
      "Dingen": 7484,
      "Drei": 7485,
      "Dank": 7486,
      "DDo": 7487,
      "Dunk": 7488,
      "DSD": 7489,
      "Doppel": 7490,
      "Ei": 7491,
      "Ep": 7492,
      "Eier": 7493,
      "Fer": 7494,
      "Fast": 7495,
      "Fore": 7496,
      "Fert": 7497,
      "Fischer": 7498,
      "Führ": 7499,
      "Grie": 7500,
      "Griff": 7501,
      "Golf": 7502,
      "Hä": 7503,
      "Hem": 7504,
      "Halb": 7505,
      "Hilfe": 7506,
      "Ident": 7507,
      "Jets": 7508,
      "Jazz": 7509,
      "Kä": 7510,
      "Kor": 7511,
      "Kab": 7512,
      "Kut": 7513,
      "Kern": 7514,
      "Käm": 7515,
      "Kost": 7516,
      "Krimin": 7517,
      "Kandid": 7518,
      "Lö": 7519,
      "Lar": 7520,
      "Lib": 7521,
      "Lok": 7522,
      "Liver": 7523,
      "Lager": 7524,
      "Misch": 7525,
      "Mess": 7526,
      "Mob": 7527,
      "Mün": 7528,
      "Macht": 7529,
      "Nar": 7530,
      "Our": 7531,
      "Offic": 7532,
      "Ohne": 7533,
      "Option": 7534,
      "PM": 7535,
      "Pir": 7536,
      "Pass": 7537,
      "Pony": 7538,
      "Pope": 7539,
      "Qual": 7540,
      "Rund": 7541,
      "Rent": 7542,
      "SE": 7543,
      "Sol": 7544,
      "Sus": 7545,
      "Stel": 7546,
      "Sax": 7547,
      "Sommer": 7548,
      "Tisch": 7549,
      "Top": 7550,
      "Table": 7551,
      "Tests": 7552,
      "Tonnen": 7553,
      "Tasman": 7554,
      "Typ": 7555,
      "Tüten": 7556,
      "Vielle": 7557,
      "Wo": 7558,
      "Wes": 7559,
      "Yes": 7560,
      "Zunge": 7561,
      "bad": 7562,
      "bute": 7563,
      "cm": 7564,
      "cular": 7565,
      "clos": 7566,
      "crow": 7567,
      "candy": 7568,
      "dur": 7569,
      "dia": 7570,
      "eer": 7571,
      "eas": 7572,
      "eded": 7573,
      "effic": 7574,
      "fis": 7575,
      "fla": 7576,
      "fäl": 7577,
      "gran": 7578,
      "games": 7579,
      "hus": 7580,
      "hart": 7581,
      "hend": 7582,
      "hoff": 7583,
      "hüt": 7584,
      "hoffen": 7585,
      "homes": 7586,
      "iant": 7587,
      "jen": 7588,
      "jam": 7589,
      "jets": 7590,
      "km": 7591,
      "kw": 7592,
      "kor": 7593,
      "kel": 7594,
      "kop": 7595,
      "kick": 7596,
      "krie": 7597,
      "kunden": 7598,
      "lö": 7599,
      "lan": 7600,
      "lies": 7601,
      "lug": 7602,
      "lasse": 7603,
      "lane": 7604,
      "länger": 7605,
      "mmer": 7606,
      "mble": 7607,
      "mord": 7608,
      "nut": 7609,
      "nimmt": 7610,
      "oth": 7611,
      "ober": 7612,
      "odies": 7613,
      "oss": 7614,
      "phen": 7615,
      "pfer": 7616,
      "pute": 7617,
      "pipeline": 7618,
      "rus": 7619,
      "rick": 7620,
      "rieren": 7621,
      "rating": 7622,
      "rasch": 7623,
      "rural": 7624,
      "sn": 7625,
      "sw": 7626,
      "sab": 7627,
      "sad": 7628,
      "sister": 7629,
      "scr": 7630,
      "sinn": 7631,
      "sburg": 7632,
      "scientists": 7633,
      "tö": 7634,
      "tan": 7635,
      "tie": 7636,
      "uz": 7637,
      "ude": 7638,
      "uous": 7639,
      "ußer": 7640,
      "vin": 7641,
      "vated": 7642,
      "volle": 7643,
      "valley": 7644,
      "wro": 7645,
      "wag": 7646,
      "wies": 7647,
      "wann": 7648,
      "xis": 7649,
      "ye": 7650,
      "yon": 7651,
      "yone": 7652,
      "zö": 7653,
      "zon": 7654,
      "zle": 7655,
      "zed": 7656,
      "zir": 7657,
      "zig": 7658,
      "zert": 7659,
      "zerst": 7660,
      "Äußer": 7661,
      "äum": 7662,
      "ören": 7663,
      "üch": 7664,
      "ült": 7665,
      "ery": 7666,
      "erve": 7667,
      "erho": 7668,
      "erreich": 7669,
      "erhält": 7670,
      "ergän": 7671,
      "ended": 7672,
      "ined": 7673,
      "indem": 7674,
      "infra": 7675,
      "intro": 7676,
      "infr": 7677,
      "inquir": 7678,
      "thes": 7679,
      "thaf": 7680,
      "throw": 7681,
      "thousands": 7682,
      "ani": 7683,
      "ande": 7684,
      "anwhile": 7685,
      "anlässlich": 7686,
      "estet": 7687,
      "onie": 7688,
      "unen": 7689,
      "unded": 7690,
      "unclear": 7691,
      "univer": 7692,
      "stal": 7693,
      "stark": 7694,
      "stamm": 7695,
      "theor": 7696,
      "theless": 7697,
      "item": 7698,
      "orn": 7699,
      "orte": 7700,
      "orben": 7701,
      "orney": 7702,
      "alters": 7703,
      "atre": 7704,
      "ature": 7705,
      "attend": 7706,
      "attention": 7707,
      "ares": 7708,
      "arke": 7709,
      "aria": 7710,
      "artet": 7711,
      "arrest": 7712,
      "arzt": 7713,
      "isierten": 7714,
      "asen": 7715,
      "assa": 7716,
      "ashed": 7717,
      "ref": 7718,
      "rev": 7719,
      "rech": 7720,
      "rect": 7721,
      "reib": 7722,
      "reign": 7723,
      "review": 7724,
      "remember": 7725,
      "rebel": 7726,
      "refle": 7727,
      "tex": 7728,
      "leiter": 7729,
      "levy": 7730,
      "gee": 7731,
      "gefallen": 7732,
      "geworfen": 7733,
      "gefragt": 7734,
      "einsetzen": 7735,
      "dep": 7736,
      "defect": 7737,
      "detained": 7738,
      "bemer": 7739,
      "bellen": 7740,
      "befinden": 7741,
      "becomes": 7742,
      "befindet": 7743,
      "toster": 7744,
      "uries": 7745,
      "urlau": 7746,
      "ursprün": 7747,
      "denk": 7748,
      "denied": 7749,
      "andon": 7750,
      "illed": 7751,
      "sehe": 7752,
      "sector": 7753,
      "seite": 7754,
      "seized": 7755,
      "heir": 7756,
      "ambit": 7757,
      "icals": 7758,
      "icitor": 7759,
      "icemails": 7760,
      "genital": 7761,
      "eds": 7762,
      "editor": 7763,
      "verk": 7764,
      "vern": 7765,
      "verz": 7766,
      "verst": 7767,
      "veral": 7768,
      "vertre": 7769,
      "verlang": 7770,
      "verkün": 7771,
      "verständ": 7772,
      "ola": 7773,
      "irt": 7774,
      "entlich": 7775,
      "entgegen": 7776,
      "entstanden": 7777,
      "imer": 7778,
      "schö": 7779,
      "schme": 7780,
      "schule": 7781,
      "schreiben": 7782,
      "igkeits": 7783,
      "weight": 7784,
      "weiger": 7785,
      "zudem": 7786,
      "zugenommen": 7787,
      "zusätz": 7788,
      "fordern": 7789,
      "racy": 7790,
      "iste": 7791,
      "istisch": 7792,
      "istischen": 7793,
      "istics": 7794,
      "emb": 7795,
      "neten": 7796,
      "neither": 7797,
      "needed": 7798,
      "agno": 7799,
      "agues": 7800,
      "abl": 7801,
      "abour": 7802,
      "abteilung": 7803,
      "abandon": 7804,
      "vet": 7805,
      "vegetar": 7806,
      "adurch": 7807,
      "advert": 7808,
      "Theor": 7809,
      "Themen": 7810,
      "ischem": 7811,
      "spy": 7812,
      "span": 7813,
      "spur": 7814,
      "spricht": 7815,
      "späten": 7816,
      "sprung": 7817,
      "opposition": 7818,
      "werke": 7819,
      "werben": 7820,
      "whistleblower": 7821,
      "haven": 7822,
      "hafte": 7823,
      "despite": 7824,
      "prozent": 7825,
      "promitt": 7826,
      "prohib": 7827,
      "plot": 7828,
      "annten": 7829,
      "ulted": 7830,
      "convic": 7831,
      "constitutional": 7832,
      "Strom": 7833,
      "Stamm": 7834,
      "Stunde": 7835,
      "Story": 7836,
      "Stütz": 7837,
      "Stift": 7838,
      "Stroh": 7839,
      "democ": 7840,
      "afe": 7841,
      "affe": 7842,
      "zeits": 7843,
      "areas": 7844,
      "perhaps": 7845,
      "Inst": 7846,
      "Indepen": 7847,
      "compe": 7848,
      "compromised": 7849,
      "sahen": 7850,
      "sens": 7851,
      "riage": 7852,
      "ripp": 7853,
      "lok": 7854,
      "load": 7855,
      "wart": 7856,
      "warum": 7857,
      "Angaben": 7858,
      "Angelegen": 7859,
      "Anyone": 7860,
      "meat": 7861,
      "meilen": 7862,
      "Schwes": 7863,
      "sichten": 7864,
      "manip": 7865,
      "export": 7866,
      "exact": 7867,
      "exhib": 7868,
      "benden": 7869,
      "gering": 7870,
      "geraten": 7871,
      "rub": 7872,
      "ruh": 7873,
      "ruhig": 7874,
      "ktoren": 7875,
      "ells": 7876,
      "ellor": 7877,
      "sured": 7878,
      "ienten": 7879,
      "Vertr": 7880,
      "Vergleich": 7881,
      "Verbrauch": 7882,
      "Versicherung": 7883,
      "indic": 7884,
      "indicated": 7885,
      "gesund": 7886,
      "gesamten": 7887,
      "ängt": 7888,
      "social": 7889,
      "sozial": 7890,
      "mails": 7891,
      "master": 7892,
      "maths": 7893,
      "maxim": 7894,
      "fewer": 7895,
      "feuert": 7896,
      "ikation": 7897,
      "laid": 7898,
      "uggel": 7899,
      "überhaupt": 7900,
      "coach": 7901,
      "covery": 7902,
      "cooperate": 7903,
      "Rechts": 7904,
      "pounds": 7905,
      "tractor": 7906,
      "trags": 7907,
      "sigen": 7908,
      "sident": 7909,
      "sieben": 7910,
      "ends": 7911,
      "apt": 7912,
      "outcome": 7913,
      "aucht": 7914,
      "Unser": 7915,
      "Bele": 7916,
      "Beweise": 7917,
      "Bezug": 7918,
      "Behaupt": 7919,
      "Bezir": 7920,
      "voran": 7921,
      "nachts": 7922,
      "nachweisen": 7923,
      "shared": 7924,
      "acted": 7925,
      "moun": 7926,
      "Gefahr": 7927,
      "Gewohn": 7928,
      "Gelegenheit": 7929,
      "ftigen": 7930,
      "quant": 7931,
      "Erd": 7932,
      "Erinner": 7933,
      "Erklärung": 7934,
      "Erwachsene": 7935,
      "anticip": 7936,
      "wurf": 7937,
      "liefern": 7938,
      "Provi": 7939,
      "astro": 7940,
      "halte": 7941,
      "brand": 7942,
      "served": 7943,
      "ifth": 7944,
      "ungskom": 7945,
      "iveau": 7946,
      "füll": 7947,
      "angegriffen": 7948,
      "angekündigt": 7949,
      "ibility": 7950,
      "interpre": 7951,
      "olds": 7952,
      "Weiden": 7953,
      "Wechsel": 7954,
      "Weather": 7955,
      "örungen": 7956,
      "ansäs": 7957,
      "ennium": 7958,
      "unternommen": 7959,
      "Einwander": 7960,
      "clar": 7961,
      "prices": 7962,
      "Gerät": 7963,
      "Geräten": 7964,
      "Leist": 7965,
      "Leuten": 7966,
      "Leiche": 7967,
      "isee": 7968,
      "ogra": 7969,
      "presents": 7970,
      "großer": 7971,
      "Spra": 7972,
      "kommer": 7973,
      "ährt": 7974,
      "ihu": 7975,
      "Vorfeld": 7976,
      "gramme": 7977,
      "compared": 7978,
      "liners": 7979,
      "aks": 7980,
      "akter": 7981,
      "aket": 7982,
      "cheid": 7983,
      "cheese": 7984,
      "getan": 7985,
      "getren": 7986,
      "forms": 7987,
      "erklären": 7988,
      "Child": 7989,
      "Challen": 7990,
      "Mittel": 7991,
      "founder": 7992,
      "useums": 7993,
      "ureau": 7994,
      "Armut": 7995,
      "Arzt": 7996,
      "correspon": 7997,
      "elected": 7998,
      "novel": 7999,
      "stellungen": 8000,
      "object": 8001,
      "carriers": 8002,
      "konstru": 8003,
      "teilnehmen": 8004,
      "Auseinander": 8005,
      "gels": 8006,
      "gelten": 8007,
      "gelern": 8008,
      "Flugzeuge": 8009,
      "worked": 8010,
      "zwölf": 8011,
      "discover": 8012,
      "dispute": 8013,
      "discovery": 8014,
      "nehm": 8015,
      "hotel": 8016,
      "hospit": 8017,
      "regierung": 8018,
      "führten": 8019,
      "betre": 8020,
      "gebaut": 8021,
      "gebühr": 8022,
      "thanked": 8023,
      "prem": 8024,
      "preis": 8025,
      "preisen": 8026,
      "fahrer": 8027,
      "monat": 8028,
      "üssen": 8029,
      "insgesamt": 8030,
      "insbesondere": 8031,
      "delicious": 8032,
      "schef": 8033,
      "Ital": 8034,
      "ordin": 8035,
      "ordnung": 8036,
      "tree": 8037,
      "Thus": 8038,
      "darum": 8039,
      "parts": 8040,
      "paranoia": 8041,
      "freien": 8042,
      "pfle": 8043,
      "letztes": 8044,
      "Nachbar": 8045,
      "rieb": 8046,
      "fulfil": 8047,
      "Impul": 8048,
      "Obwohl": 8049,
      "Aufzeich": 8050,
      "Auftakt": 8051,
      "älter": 8052,
      "begrü": 8053,
      "beginnen": 8054,
      "begonnen": 8055,
      "Bote": 8056,
      "barrel": 8057,
      "idea": 8058,
      "idet": 8059,
      "ideal": 8060,
      "Herz": 8061,
      "Herren": 8062,
      "Herbst": 8063,
      "Heroes": 8064,
      "Menge": 8065,
      "gestorben": 8066,
      "räum": 8067,
      "someone": 8068,
      "wagen": 8069,
      "Expl": 8070,
      "Pläne": 8071,
      "osion": 8072,
      "ossen": 8073,
      "thematik": 8074,
      "Meanwhile": 8075,
      "cious": 8076,
      "council": 8077,
      "Rohr": 8078,
      "Robo": 8079,
      "geschle": 8080,
      "geschrieben": 8081,
      "structed": 8082,
      "handlungen": 8083,
      "Orts": 8084,
      "acting": 8085,
      "helpers": 8086,
      "sexy": 8087,
      "sexuell": 8088,
      "anzler": 8089,
      "deutung": 8090,
      "deutsch": 8091,
      "lawmakers": 8092,
      "höhung": 8093,
      "starke": 8094,
      "Afrika": 8095,
      "Kons": 8096,
      "Konzept": 8097,
      "Konflikt": 8098,
      "Schulung": 8099,
      "threat": 8100,
      "würdig": 8101,
      "investment": 8102,
      "player": 8103,
      "richen": 8104,
      "zieht": 8105,
      "learned": 8106,
      "Fahrzeugen": 8107,
      "located": 8108,
      "politische": 8109,
      "solar": 8110,
      "solicitor": 8111,
      "explo": 8112,
      "Marihu": 8113,
      "smic": 8114,
      "straight": 8115,
      "sicherte": 8116,
      "nationale": 8117,
      "nationalen": 8118,
      "decide": 8119,
      "operator": 8120,
      "driven": 8121,
      "highest": 8122,
      "marks": 8123,
      "request": 8124,
      "whereby": 8125,
      "provider": 8126,
      "gling": 8127,
      "glow": 8128,
      "Norden": 8129,
      "utzt": 8130,
      "Australier": 8131,
      "verbunden": 8132,
      "verschul": 8133,
      "zurückge": 8134,
      "zurückzu": 8135,
      "married": 8136,
      "marijuana": 8137,
      "Barrel": 8138,
      "Mannschaft": 8139,
      "jähriger": 8140,
      "caire": 8141,
      "langu": 8142,
      "choice": 8143,
      "pointed": 8144,
      "spielte": 8145,
      "bilden": 8146,
      "planners": 8147,
      "submit": 8148,
      "investigators": 8149,
      "mittler": 8150,
      "zeichen": 8151,
      "positions": 8152,
      "Server": 8153,
      "römischen": 8154,
      "scen": 8155,
      "stream": 8156,
      "strecken": 8157,
      "authority": 8158,
      "Prism": 8159,
      "trust": 8160,
      "stuff": 8161,
      "respond": 8162,
      "Alltag": 8163,
      "Blue": 8164,
      "severe": 8165,
      "trying": 8166,
      "Teilnahme": 8167,
      "Klima": 8168,
      "verlänger": 8169,
      "verlangen": 8170,
      "mitteln": 8171,
      "meetings": 8172,
      "Today": 8173,
      "findings": 8174,
      "wichtige": 8175,
      "attacks": 8176,
      "presentation": 8177,
      "difference": 8178,
      "Hochgeschwind": 8179,
      "Hochzeits": 8180,
      "Preise": 8181,
      "valid": 8182,
      "sprecher": 8183,
      "complex": 8184,
      "gleichzeitig": 8185,
      "Clarke": 8186,
      "sky": 8187,
      "believes": 8188,
      "protected": 8189,
      "postal": 8190,
      "tribüne": 8191,
      "forderte": 8192,
      "offenen": 8193,
      "Without": 8194,
      "single": 8195,
      "safe": 8196,
      "engine": 8197,
      "Verband": 8198,
      "stehenden": 8199,
      "consideration": 8200,
      "considerably": 8201,
      "ebenso": 8202,
      "umenten": 8203,
      "bike": 8204,
      "biete": 8205,
      "frontation": 8206,
      "ordered": 8207,
      "tension": 8208,
      "haltung": 8209,
      "Haar": 8210,
      "issued": 8211,
      "Zusammenarbeit": 8212,
      "Democr": 8213,
      "Kaiser": 8214,
      "Opposition": 8215,
      "gravit": 8216,
      "household": 8217,
      "suspend": 8218,
      "footage": 8219,
      "Geschlechter": 8220,
      "Firma": 8221,
      "People": 8222,
      "Sitzbreite": 8223,
      "Urkunde": 8224,
      "häre": 8225,
      "prakt": 8226,
      "äußerst": 8227,
      "Missbrauch": 8228,
      "lebensl": 8229,
      "Ermittler": 8230,
      "involving": 8231,
      "Musikhoch": 8232,
      "baggage": 8233,
      "figure": 8234,
      "tunnels": 8235,
      "einzige": 8236,
      "Spieler": 8237,
      "Planung": 8238,
      "profitieren": 8239,
      "draw": 8240,
      "gave": 8241,
      "gather": 8242,
      "witness": 8243,
      "chemicals": 8244,
      "remained": 8245,
      "elektronischen": 8246,
      "Kreuz": 8247,
      "judges": 8248,
      "bereitet": 8249,
      "employed": 8250,
      "confidence": 8251,
      "warnt": 8252,
      "warning": 8253,
      "Kardinälen": 8254,
      "Zeichen": 8255,
      "collision": 8256,
      "collabor": 8257,
      "collection": 8258,
      "colleagues": 8259,
      "harm": 8260,
      "scheint": 8261,
      "Berufs": 8262,
      "Perhaps": 8263,
      "Punkte": 8264,
      "criticism": 8265,
      "film": 8266,
      "journal": 8267,
      "journalist": 8268,
      "named": 8269,
      "provides": 8270,
      "interesting": 8271,
      "Obeids": 8272,
      "Kampf": 8273,
      "broken": 8274,
      "cardinal": 8275,
      "feller": 8276,
      "facil": 8277,
      "faced": 8278,
      "erfolgte": 8279,
      "feeling": 8280,
      "quarry": 8281,
      "offizielle": 8282,
      "Brüste": 8283,
      "Kenya": 8284,
      "Middle": 8285,
      "erlebt": 8286,
      "confirm": 8287,
      "speaker": 8288,
      "betont": 8289,
      "Johannes": 8290,
      "Mexiko": 8291,
      "capital": 8292,
      "capacity": 8293,
      "wendig": 8294,
      "charged": 8295,
      "attempted": 8296,
      "secution": 8297,
      "consume": 8298,
      "flugzeug": 8299,
      "Aktivitäten": 8300,
      "Bayern": 8301,
      "Milit": 8302,
      "Patienten": 8303,
      "Should": 8304,
      "Trucks": 8305,
      "massive": 8306,
      "materials": 8307,
      "achieve": 8308,
      "announcements": 8309,
      "presidential": 8310,
      "Politik": 8311,
      "musicians": 8312,
      "Büro": 8313,
      "Danach": 8314,
      "Fernsehen": 8315,
      "Joe": 8316,
      "fällt": 8317,
      "bezeichnete": 8318,
      "wechselte": 8319,
      "placing": 8320,
      "sentenced": 8321,
      "physical": 8322,
      "surgeries": 8323,
      "bestimmt": 8324,
      "bestimmte": 8325,
      "präsentierte": 8326,
      "Missionen": 8327,
      "Emp": 8328,
      "meldete": 8329,
      "Auftritt": 8330,
      "unterstützt": 8331,
      "clinics": 8332,
      "ehemaligen": 8333,
      "Damit": 8334,
      "Pastor": 8335,
      "Safety": 8336,
      "crucial": 8337,
      "natürlich": 8338,
      "rules": 8339,
      "erzählt": 8340,
      "erzählte": 8341,
      "befand": 8342,
      "bewält": 8343,
      "seeking": 8344,
      "contract": 8345,
      "suitable": 8346,
      "assumed": 8347,
      "allergies": 8348,
      "suspects": 8349,
      "männlich": 8350,
      "Autumn": 8351,
      "Earlier": 8352,
      "Smartphones": 8353,
      "clients": 8354,
      "hielten": 8355,
      "erlauben": 8356,
      "alongside": 8357,
      "earnings": 8358,
      "featuring": 8359,
      "Bewegungen": 8360,
      "Geburts": 8361,
      "Europäischen": 8362,
      "Georgia": 8363,
      "motiviert": 8364,
      "Kilometern": 8365,
      "effectively": 8366,
      "persönlich": 8367,
      "Dienstag": 8368,
      "Freiwill": 8369,
      "honour": 8370,
      "wrongdoing": 8371,
      "australischen": 8372,
      "betrachtet": 8373,
      "bedingt": 8374,
      "connection": 8375,
      "Studie": 8376,
      "models": 8377,
      "Gesprächs": 8378,
      "Freilassung": 8379,
      "Forscher": 8380,
      "Zuschüsse": 8381,
      "Pressekonferenz": 8382,
      "Betrieb": 8383,
      "Betriebs": 8384,
      "employees": 8385,
      "Netzwerk": 8386,
      "Wettbewer": 8387,
      "bunal": 8388,
      "jemand": 8389,
      "title": 8390,
      "tablets": 8391,
      "stimmte": 8392,
      "argument": 8393,
      "schwarze": 8394,
      "complain": 8395,
      "source": 8396,
      "mentioned": 8397,
      "merksam": 8398,
      "angelischen": 8399,
      "Secretary": 8400,
      "experienced": 8401,
      "Südtribüne": 8402,
      "Journalist": 8403,
      "Justiz": 8404,
      "Langstrecken": 8405,
      "Pferde": 8406,
      "cabin": 8407,
      "pflanz": 8408,
      "weiblich": 8409,
      "radio": 8410,
      "eständnis": 8411,
      "ceedings": 8412,
      "ausländische": 8413,
      "affairs": 8414,
      "Gesellschaft": 8415,
      "Voraussetzungen": 8416,
      "begleitet": 8417,
      "occurred": 8418,
      "kleineren": 8419,
      "subsidies": 8420,
      "Turnier": 8421,
      "Industrie": 8422,
      "Kampagnen": 8423,
      "Kritik": 8424,
      "Mainz": 8425,
      "Patente": 8426,
      "junction": 8427,
      "atmosphere": 8428,
      "recommended": 8429,
      "getroffen": 8430,
      "declared": 8431,
      "schottische": 8432,
      "Analysten": 8433,
      "Schenk": 8434,
      "expand": 8435,
      "sufficient": 8436,
      "primarily": 8437,
      "England": 8438,
      "Computer": 8439,
      "requires": 8440,
      "Allerdings": 8441,
      "größeren": 8442,
      "Gremien": 8443,
      "Wilhelm": 8444,
      "Ludwigs": 8445,
      "CEO": 8446,
      "Dunningen": 8447,
      "Grenze": 8448,
      "Königs": 8449,
      "NRF": 8450,
      "Rhein": 8451,
      "candidate": 8452,
      "squad": 8453,
      "tablespo": 8454,
      "züglich": 8455,
      "chairman": 8456,
      "departure": 8457,
      "begeister": 8458,
      "umstances": 8459,
      "opinion": 8460,
      "voraussichtlich": 8461,
      "ernsthaf": 8462,
      "video": 8463,
      "cyclists": 8464,
      "structure": 8465,
      "struktur": 8466,
      "pleasure": 8467,
      "Mozambique": 8468,
      "subsequent": 8469,
      "eigentlich": 8470,
      "Verbündeten": 8471,
      "significant": 8472,
      "Restaurants": 8473,
      "repeatedly": 8474,
      "Schauspieler": 8475,
      "County": 8476,
      "Mulcaire": 8477,
      "Options": 8478,
      "Stellen": 8479,
      "pumpk": 8480,
      "völlig": 8481,
      "erhielt": 8482,
      "bezahlt": 8483,
      "secrets": 8484,
      "resolved": 8485,
      "combined": 8486,
      "external": 8487,
      "poverty": 8488,
      "Protestant": 8489,
      "clashes": 8490,
      "penalty": 8491,
      "Premierminister": 8492,
      "Südafrika": 8493,
      "Demokratie": 8494,
      "suspended": 8495,
      "hormones": 8496,
      "volunteers": 8497,
      "Touristenklasse": 8498,
      "Investitionen": 8499,
      "Abendmahlskirche": 8500,
      "circumstances": 8501,
      "College": 8502,
      "Details": 8503,
      "Devisen": 8504,
      "DDoS": 8505,
      "Foreign": 8506,
      "Identität": 8507,
      "Liverpool": 8508,
      "Vielleicht": 8509,
      "flavour": 8510,
      "husband": 8511,
      "wrote": 8512,
      "yond": 8513,
      "introdu": 8514,
      "items": 8515,
      "ambitious": 8516,
      "genitalia": 8517,
      "advertising": 8518,
      "prozentigen": 8519,
      "convicted": 8520,
      "democracy": 8521,
      "Vertrauen": 8522,
      "Verbraucher": 8523,
      "Children": 8524,
      "Challenge": 8525,
      "Auseinandersetzung": 8526,
      "gravitational": 8527,
      "collaboration": 8528,
      "%)": 8529,
      "125": 8530,
      "1250": 8531,
      "28": 8532,
      "34": 8533,
      "330": 8534,
      "41": 8535,
      "44": 8536,
      "49": 8537,
      "51": 8538,
      "52": 8539,
      "53": 8540,
      "56": 8541,
      "59": 8542,
      "63": 8543,
      "64": 8544,
      "68": 8545,
      "82": 8546,
      "87": 8547,
      "88": 8548,
      "800": 8549,
      "94": 8550,
      "95": 8551,
      "96": 8552,
      "900": 8553,
      "Ara": 8554,
      "Alo": 8555,
      "Asia": 8556,
      "A350": 8557,
      "BM": 8558,
      "Bf": 8559,
      "Ban": 8560,
      "Bon": 8561,
      "Beinen": 8562,
      "Bern": 8563,
      "Bud": 8564,
      "Bitt": 8565,
      "Bonn": 8566,
      "Bilder": 8567,
      "Cä": 8568,
      "Cer": 8569,
      "Card": 8570,
      "Cry": 8571,
      "Colog": 8572,
      "CCA": 8573,
      "Cross": 8574,
      "Clive": 8575,
      "Clap": 8576,
      "Crump": 8577,
      "Dach": 8578,
      "Dut": 8579,
      "Due": 8580,
      "Dog": 8581,
      "Dauer": 8582,
      "Düsse": 8583,
      "ER": 8584,
      "Et": 8585,
      "Ele": 8586,
      "Ehr": 8587,
      "Eck": 8588,
      "Eigen": 8589,
      "Ehl": 8590,
      "Ehren": 8591,
      "Ereign": 8592,
      "FM": 8593,
      "FX": 8594,
      "Fa": 8595,
      "Fan": 8596,
      "Far": 8597,
      "Fres": 8598,
      "Fuch": 8599,
      "Found": 8600,
      "FCA": 8601,
      "FBI": 8602,
      "Gs": 8603,
      "Gal": 8604,
      "Ged": 8605,
      "Gran": 8606,
      "Gön": 8607,
      "Gip": 8608,
      "Gail": 8609,
      "Girl": 8610,
      "GMail": 8611,
      "Gmail": 8612,
      "HQ": 8613,
      "Hum": 8614,
      "Hill": 8615,
      "Hone": 8616,
      "Hark": 8617,
      "Hob": 8618,
      "Hamm": 8619,
      "Huer": 8620,
      "Hisp": 8621,
      "Heinz": 8622,
      "Hände": 8623,
      "IS": 8624,
      "Ist": 8625,
      "Icy": 8626,
      "ICA": 8627,
      "Jes": 8628,
      "Jay": 8629,
      "Jack": 8630,
      "Jens": 8631,
      "Jetzt": 8632,
      "Jane": 8633,
      "Jacqu": 8634,
      "Jäger": 8635,
      "JPM": 8636,
      "Kas": 8637,
      "Koch": 8638,
      "Kli": 8639,
      "Kub": 8640,
      "Klin": 8641,
      "Kos": 8642,
      "Kimm": 8643,
      "Klage": 8644,
      "Kathol": 8645,
      "Köl": 8646,
      "Khan": 8647,
      "Kaliforn": 8648,
      "Kraf": 8649,
      "Kriminal": 8650,
      "Kroll": 8651,
      "Kongress": 8652,
      "Lein": 8653,
      "Last": 8654,
      "Liter": 8655,
      "Long": 8656,
      "Lombard": 8657,
      "Ländern": 8658,
      "Länge": 8659,
      "Labour": 8660,
      "MD": 8661,
      "MX": 8662,
      "Mis": 8663,
      "Mic": 8664,
      "Mel": 8665,
      "Mem": 8666,
      "Map": 8667,
      "Mass": 8668,
      "Mile": 8669,
      "Mors": 8670,
      "Mos": 8671,
      "Masch": 8672,
      "Nun": 8673,
      "Nou": 8674,
      "Nahr": 8675,
      "Noch": 8676,
      "Nations": 8677,
      "Nationen": 8678,
      "Nathan": 8679,
      "Nuclear": 8680,
      "Osam": 8681,
      "Oreg": 8682,
      "Offen": 8683,
      "Osmic": 8684,
      "OMX": 8685,
      "Pet": 8686,
      "Psa": 8687,
      "Prü": 8688,
      "Pick": 8689,
      "Pron": 8690,
      "Press": 8691,
      "Pkw": 8692,
      "Qaid": 8693,
      "Ron": 8694,
      "Run": 8695,
      "Rat": 8696,
      "Rich": 8697,
      "Rein": 8698,
      "Ram": 8699,
      "Rol": 8700,
      "Rot": 8701,
      "Rud": 8702,
      "Rath": 8703,
      "Rather": 8704,
      "Sk": 8705,
      "Sun": 8706,
      "Sur": 8707,
      "Ster": 8708,
      "Sow": 8709,
      "Sad": 8710,
      "Seinen": 8711,
      "Song": 8712,
      "Sho": 8713,
      "Soren": 8714,
      "Slate": 8715,
      "Tam": 8716,
      "Taus": 8717,
      "Tip": 8718,
      "Tinto": 8719,
      "Täter": 8720,
      "Uru": 8721,
      "Uli": 8722,
      "Usher": 8723,
      "VW": 8724,
      "Vit": 8725,
      "Vien": 8726,
      "VIM": 8727,
      "Wa": 8728,
      "Wat": 8729,
      "Wet": 8730,
      "Wien": 8731,
      "Wind": 8732,
      "Wik": 8733,
      "Wohl": 8734,
      "Yard": 8735,
      "Yang": 8736,
      "Yong": 8737,
      "Youth": 8738,
      "Zerst": 8739,
      "ader": 8740,
      "aper": 8741,
      "aders": 8742,
      "aktiv": 8743,
      "awards": 8744,
      "aKlima": 8745,
      "bn": 8746,
      "bing": 8747,
      "bten": 8748,
      "bid": 8749,
      "bri": 8750,
      "bik": 8751,
      "bart": 8752,
      "bess": 8753,
      "bzw": 8754,
      "bliche": 8755,
      "bins": 8756,
      "bought": 8757,
      "cers": 8758,
      "cry": 8759,
      "caut": 8760,
      "cumen": 8761,
      "cakes": 8762,
      "dd": 8763,
      "dut": 8764,
      "dum": 8765,
      "dub": 8766,
      "dated": 8767,
      "dlichen": 8768,
      "dance": 8769,
      "dates": 8770,
      "dollar": 8771,
      "dinner": 8772,
      "dney": 8773,
      "diction": 8774,
      "daher": 8775,
      "dritte": 8776,
      "eh": 8777,
      "echt": 8778,
      "ease": 8779,
      "eating": 8780,
      "ecu": 8781,
      "eye": 8782,
      "fing": 8783,
      "fab": 8784,
      "fted": 8785,
      "ftet": 8786,
      "fassen": 8787,
      "falt": 8788,
      "filed": 8789,
      "fifth": 8790,
      "gun": 8791,
      "gten": 8792,
      "gru": 8793,
      "gno": 8794,
      "gäng": 8795,
      "gäste": 8796,
      "gült": 8797,
      "hü": 8798,
      "hil": 8799,
      "hip": 8800,
      "hbach": 8801,
      "händler": 8802,
      "iro": 8803,
      "idem": 8804,
      "ike": 8805,
      "ife": 8806,
      "iate": 8807,
      "iLe": 8808,
      "ients": 8809,
      "ioren": 8810,
      "iently": 8811,
      "jur": 8812,
      "jel": 8813,
      "jag": 8814,
      "jungen": 8815,
      "jack": 8816,
      "jail": 8817,
      "kung": 8818,
      "kno": 8819,
      "kamer": 8820,
      "kumen": 8821,
      "kandid": 8822,
      "kollegen": 8823,
      "las": 8824,
      "lic": 8825,
      "lers": 8826,
      "lust": 8827,
      "lass": 8828,
      "löff": 8829,
      "lbeck": 8830,
      "mi": 8831,
      "mü": 8832,
      "mind": 8833,
      "mär": 8834,
      "mone": 8835,
      "mous": 8836,
      "mächt": 8837,
      "nom": 8838,
      "nöt": 8839,
      "oil": 8840,
      "pal": 8841,
      "phe": 8842,
      "pic": 8843,
      "pfe": 8844,
      "pft": 8845,
      "pone": 8846,
      "powers": 8847,
      "rist": 8848,
      "rier": 8849,
      "rare": 8850,
      "riter": 8851,
      "raten": 8852,
      "rors": 8853,
      "som": 8854,
      "sha": 8855,
      "sang": 8856,
      "scar": 8857,
      "swit": 8858,
      "sales": 8859,
      "southern": 8860,
      "tten": 8861,
      "tall": 8862,
      "tungs": 8863,
      "tland": 8864,
      "targe": 8865,
      "tief": 8866,
      "uc": 8867,
      "ugen": 8868,
      "udes": 8869,
      "uchen": 8870,
      "ubel": 8871,
      "vant": 8872,
      "vary": 8873,
      "vement": 8874,
      "woch": 8875,
      "wise": 8876,
      "wolle": 8877,
      "wald": 8878,
      "wären": 8879,
      "writer": 8880,
      "xel": 8881,
      "ymouth": 8882,
      "zy": 8883,
      "zil": 8884,
      "zone": 8885,
      "zbollah": 8886,
      "Ökumen": 8887,
      "ßhaber": 8888,
      "äden": 8889,
      "äus": 8890,
      "äha": 8891,
      "ök": 8892,
      "öch": 8893,
      "ötet": 8894,
      "üme": 8895,
      "ümer": 8896,
      "ücht": 8897,
      "“-": 8898,
      "erd": 8899,
      "eral": 8900,
      "erinn": 8901,
      "ermut": 8902,
      "erleben": 8903,
      "erwachsen": 8904,
      "erneut": 8905,
      "ercise": 8906,
      "erfüllen": 8907,
      "ense": 8908,
      "enten": 8909,
      "enzen": 8910,
      "engl": 8911,
      "enende": 8912,
      "ensure": 8913,
      "encourage": 8914,
      "ina": 8915,
      "inchen": 8916,
      "inated": 8917,
      "inno": 8918,
      "inches": 8919,
      "inois": 8920,
      "chain": 8921,
      "chott": 8922,
      "chines": 8923,
      "chronic": 8924,
      "chromos": 8925,
      "thony": 8926,
      "thrown": 8927,
      "ante": 8928,
      "anic": 8929,
      "anien": 8930,
      "ania": 8931,
      "anlagen": 8932,
      "anistan": 8933,
      "esa": 8934,
      "esth": 8935,
      "oness": 8936,
      "unted": 8937,
      "unable": 8938,
      "unfall": 8939,
      "univers": 8940,
      "unmöglich": 8941,
      "unlikely": 8942,
      "unusual": 8943,
      "ungewöhn": 8944,
      "unangemessen": 8945,
      "ston": 8946,
      "stung": 8947,
      "stad": 8948,
      "stall": 8949,
      "stick": 8950,
      "store": 8951,
      "stations": 8952,
      "stability": 8953,
      "thek": 8954,
      "theim": 8955,
      "thedr": 8956,
      "itation": 8957,
      "itze": 8958,
      "itern": 8959,
      "itive": 8960,
      "itarian": 8961,
      "ores": 8962,
      "orary": 8963,
      "orium": 8964,
      "ieten": 8965,
      "iell": 8966,
      "iegeln": 8967,
      "ala": 8968,
      "alem": 8969,
      "alke": 8970,
      "alition": 8971,
      "alhalle": 8972,
      "arm": 8973,
      "arche": 8974,
      "isn": 8975,
      "asz": 8976,
      "asis": 8977,
      "asil": 8978,
      "aspe": 8979,
      "ascus": 8980,
      "ree": 8981,
      "rela": 8982,
      "reli": 8983,
      "reje": 8984,
      "refu": 8985,
      "revenue": 8986,
      "replacing": 8987,
      "derly": 8988,
      "teurer": 8989,
      "leiten": 8990,
      "leute": 8991,
      "lease": 8992,
      "legs": 8993,
      "letes": 8994,
      "lecker": 8995,
      "lehne": 8996,
      "leases": 8997,
      "ichert": 8998,
      "ichnam": 8999,
      "geon": 9000,
      "gegrün": 9001,
      "einsch": 9002,
      "eingesch": 9003,
      "einricht": 9004,
      "auge": 9005,
      "decor": 9006,
      "deuten": 9007,
      "detail": 9008,
      "declin": 9009,
      "ingt": 9010,
      "bean": 9011,
      "bewe": 9012,
      "belong": 9013,
      "bekäm": 9014,
      "bedenken": 9015,
      "beantwor": 9016,
      "bezüglich": 9017,
      "beyond": 9018,
      "bedeuten": 9019,
      "tower": 9020,
      "toire": 9021,
      "toler": 9022,
      "toward": 9023,
      "togra": 9024,
      "urgen": 9025,
      "urlbeck": 9026,
      "dents": 9027,
      "dennoch": 9028,
      "denburg": 9029,
      "denbeck": 9030,
      "roup": 9031,
      "rochen": 9032,
      "rosof": 9033,
      "ionieren": 9034,
      "sey": 9035,
      "seas": 9036,
      "sets": 9037,
      "seiten": 9038,
      "undlich": 9039,
      "amber": 9040,
      "amoun": 9041,
      "ambig": 9042,
      "icke": 9043,
      "ications": 9044,
      "gency": 9045,
      "genannten": 9046,
      "edt": 9047,
      "tenden": 9048,
      "tenance": 9049,
      "verab": 9050,
      "verha": 9051,
      "verges": 9052,
      "verfü": 9053,
      "verfahren": 9054,
      "verkn": 9055,
      "versuchen": 9056,
      "verstär": 9057,
      "verfolgen": 9058,
      "vergewalt": 9059,
      "verheir": 9060,
      "older": 9061,
      "oltz": 9062,
      "olai": 9063,
      "irgend": 9064,
      "irurg": 9065,
      "elia": 9066,
      "elderly": 9067,
      "enty": 9068,
      "entran": 9069,
      "entspre": 9070,
      "entschied": 9071,
      "entdecken": 9072,
      "impres": 9073,
      "impa": 9074,
      "impose": 9075,
      "unges": 9076,
      "schor": 9077,
      "scheinen": 9078,
      "schwä": 9079,
      "schlossen": 9080,
      "ignet": 9081,
      "igroup": 9082,
      "bericht": 9083,
      "berger": 9084,
      "beruf": 9085,
      "oured": 9086,
      "wedel": 9087,
      "weils": 9088,
      "wett": 9089,
      "zuzu": 9090,
      "zugest": 9091,
      "zufinden": 9092,
      "zustellen": 9093,
      "zuständ": 9094,
      "zufolge": 9095,
      "forum": 9096,
      "rack": 9097,
      "radar": 9098,
      "istol": 9099,
      "istair": 9100,
      "istischer": 9101,
      "istiken": 9102,
      "emit": 9103,
      "ierig": 9104,
      "neiden": 9105,
      "usern": 9106,
      "ussia": 9107,
      "usalem": 9108,
      "agers": 9109,
      "agert": 9110,
      "abian": 9111,
      "abschalten": 9112,
      "veter": 9113,
      "ows": 9114,
      "owner": 9115,
      "cklen": 9116,
      "utin": 9117,
      "utter": 9118,
      "ades": 9119,
      "ador": 9120,
      "adds": 9121,
      "adjust": 9122,
      "adults": 9123,
      "advoc": 9124,
      "ida": 9125,
      "idance": 9126,
      "allowing": 9127,
      "establ": 9128,
      "etary": 9129,
      "umes": 9130,
      "illes": 9131,
      "otball": 9132,
      "otmann": 9133,
      "mitten": 9134,
      "aufsicht": 9135,
      "aufgenommen": 9136,
      "aufbauen": 9137,
      "Their": 9138,
      "Theology": 9139,
      "spun": 9140,
      "spät": 9141,
      "sprä": 9142,
      "spionage": 9143,
      "opposing": 9144,
      "werker": 9145,
      "whom": 9146,
      "auso": 9147,
      "ausmachen": 9148,
      "ausschließlich": 9149,
      "ausgesprochen": 9150,
      "desk": 9151,
      "prose": 9152,
      "wasn": 9153,
      "ples": 9154,
      "annah": 9155,
      "ulf": 9156,
      "uly": 9157,
      "ulen": 9158,
      "ultur": 9159,
      "consen": 9160,
      "contain": 9161,
      "condition": 9162,
      "convin": 9163,
      "conjunction": 9164,
      "Stim": 9165,
      "Stück": 9166,
      "Stud": 9167,
      "Städ": 9168,
      "Stabilität": 9169,
      "demeer": 9170,
      "keeper": 9171,
      "afford": 9172,
      "affect": 9173,
      "zeiten": 9174,
      "resort": 9175,
      "resulted": 9176,
      "perrt": 9177,
      "pertheim": 9178,
      "pertoire": 9179,
      "Inform": 9180,
      "Intern": 9181,
      "Instr": 9182,
      "Inhaber": 9183,
      "Ingenie": 9184,
      "comments": 9185,
      "senal": 9186,
      "sensit": 9187,
      "rival": 9188,
      "ribute": 9189,
      "lovers": 9190,
      "lokal": 9191,
      "loyal": 9192,
      "warfen": 9193,
      "Anges": 9194,
      "Another": 9195,
      "Antw": 9196,
      "Anja": 9197,
      "Anwal": 9198,
      "Anschluss": 9199,
      "Anschuldig": 9200,
      "Anstreng": 9201,
      "Anzeige": 9202,
      "Anschließend": 9203,
      "Anthony": 9204,
      "lyfish": 9205,
      "meter": 9206,
      "Scham": 9207,
      "Schill": 9208,
      "Schwer": 9209,
      "Schän": 9210,
      "Schön": 9211,
      "Schied": 9212,
      "Schüsse": 9213,
      "Schritte": 9214,
      "Schalke": 9215,
      "sichere": 9216,
      "manche": 9217,
      "fürchtet": 9218,
      "exist": 9219,
      "extent": 9220,
      "exists": 9221,
      "exposed": 9222,
      "extradition": 9223,
      "exercise": 9224,
      "ffy": 9225,
      "ffiz": 9226,
      "rug": 9227,
      "ruction": 9228,
      "ktive": 9229,
      "ldorf": 9230,
      "suche": 9231,
      "iens": 9232,
      "Vereine": 9233,
      "Verfü": 9234,
      "Verpf": 9235,
      "Versor": 9236,
      "Versprechen": 9237,
      "Verhält": 9238,
      "Verhaft": 9239,
      "Verkaufs": 9240,
      "herkö": 9241,
      "gespe": 9242,
      "gespräche": 9243,
      "gesperrt": 9244,
      "änglich": 9245,
      "hattan": 9246,
      "sole": 9247,
      "soda": 9248,
      "maßnahmen": 9249,
      "feed": 9250,
      "fekt": 9251,
      "feuer": 9252,
      "ikön": 9253,
      "laster": 9254,
      "überr": 9255,
      "übersch": 9256,
      "überwiegen": 9257,
      "ivity": 9258,
      "cours": 9259,
      "Regen": 9260,
      "Refer": 9261,
      "Repor": 9262,
      "Republ": 9263,
      "Rechte": 9264,
      "Reason": 9265,
      "Revier": 9266,
      "Reichen": 9267,
      "poss": 9268,
      "tragt": 9269,
      "tracking": 9270,
      "sige": 9271,
      "ranging": 9272,
      "randenburg": 9273,
      "Autop": 9274,
      "merce": 9275,
      "worten": 9276,
      "hasn": 9277,
      "Under": 9278,
      "Bege": 9279,
      "Becht": 9280,
      "Beamte": 9281,
      "Behandlung": 9282,
      "Bedeutung": 9283,
      "vorbei": 9284,
      "vorgeschlagen": 9285,
      "vorbereitet": 9286,
      "shaus": 9287,
      "shift": 9288,
      "notwendig": 9289,
      "acare": 9290,
      "accom": 9291,
      "accor": 9292,
      "accompl": 9293,
      "klin": 9294,
      "klass": 9295,
      "moves": 9296,
      "update": 9297,
      "Gebrauch": 9298,
      "Gefühl": 9299,
      "Gewinner": 9300,
      "ftige": 9301,
      "quiet": 9302,
      "Eröff": 9303,
      "Erzähl": 9304,
      "Erfolg": 9305,
      "Erkennt": 9306,
      "aged": 9307,
      "inep": 9308,
      "Proje": 9309,
      "asten": 9310,
      "halbe": 9311,
      "hnung": 9312,
      "brück": 9313,
      "liver": 9314,
      "reng": 9315,
      "render": 9316,
      "rengen": 9317,
      "rennen": 9318,
      "renzun": 9319,
      "sery": 9320,
      "wodurch": 9321,
      "ustadt": 9322,
      "nowled": 9323,
      "rücken": 9324,
      "ungsweise": 9325,
      "ungsgericht": 9326,
      "ungsziele": 9327,
      "gov": 9328,
      "cheng": 9329,
      "Gesetze": 9330,
      "fühlen": 9331,
      "anged": 9332,
      "angehalten": 9333,
      "angeboten": 9334,
      "ibly": 9335,
      "trat": 9336,
      "trick": 9337,
      "truly": 9338,
      "interner": 9339,
      "interests": 9340,
      "interior": 9341,
      "Weymouth": 9342,
      "ubrandenburg": 9343,
      "bound": 9344,
      "boss": 9345,
      "unterhalts": 9346,
      "Einkaufs": 9347,
      "Geroltz": 9348,
      "Leitung": 9349,
      "League": 9350,
      "Leichnam": 9351,
      "hlung": 9352,
      "Neur": 9353,
      "Neil": 9354,
      "Neuer": 9355,
      "Neustadt": 9356,
      "Neubrandenburg": 9357,
      "minster": 9358,
      "izieren": 9359,
      "izene": 9360,
      "izza": 9361,
[...]
